3c1023cf
3bb26ccf
bcd74f72
bd56d091
3c1f410e
bce01bca
3d007ee1
3ca391d5
3cd23704
bcc4c9c9
bc9f0c35
3c922318
bba5c29d
3c03481e
bd0db270
3c809d49
b8881504
bc80064b
bcaf7f4a
bcf6f8f0
bd4de7ea
bb92df6b
bcd9231c
3c5b4cc2
bd55f352
3c442203
bbcaa906
bb0d1e61
3d299a63
3c8a7610
bd0620ab
bc093101
bc1e591c
ba777212
bca1d324
bd07357e
bd2276b8
bc8e8c8b
3b555384
3cbc408e
bcbad18d
bc712c28
3bb7ee18
bc095c35
3cece78a
bc82235b
bc3dba0a
3c9a8ef7
3cbe596d
3d0fa69c
3c015a73
bbed65ca
bc15defa
bcfaf428
bd113d75
3cad6239
bd1550ca
3c8d66f1
bb17833f
bab01f17
3cfb6fe3
bab73663
3cef1562
bcd4ed2d
3cf2a7bd
3b3b341e
3b289abe
bc811f4f
b9ca0a25
bce7afa7
3cbcd35b
3d011c2a
ba730546
bcb6b4c8
bcab191e
3c7e260b
3a280416
3b4b5350
3c8b4e12
bd31422d
3b9f383f
bc085173
bbfcf22f
3c5a09cc
3c268b1a
3aba7689
bcb5efa6
3cc7d3d4
3d0b3d4b
badab4ed
3d3ab431
3cc388ec
bc9960fa
3cc6f156
bd068a93
3bf9ff35
bd17646b
3cdfc7e7
baf1eb6a
3c54738a
bce5fd8b
bca2d2fe
bb1f3b9a
bb1ca9ef
3c7a97e1
bd26b830
3bda554c
3c926202
ba78aacc
bcddc832
bc804b7f
bb28fc0d
bbd405a6
3cefe719
bc45718f
3d198bf8
3cd08b33
3c3e058a
bc5a37ef
bc953587
3c2aeafb
bd202ea9
bd1106ee
3d2b3786
3d2bb129
ba91e215
3cb1c21a
bb8cec0c
3d23e8de
bd2ea0fd
bce6ddf0
bce66cb1
3d2a5508
3cae8188
3c8e325d
3c972abf
3cd9ad86
3be7d2e3
3c3e2718
3c5173fb
3d1b4edb
3c5f58c1
3cf008a7
bcd86ca9
3d24fca4
3cfbca10
bcc2c7fc
bcca46e1
3c82645e
3a42f589
bc3a493d
bcac1f43
baeae841
bc9ede12
bcebe165
3c75232d
bd310fd8
3d0e2d1f
3c8ad46f
3d1c1f86
bba569b1
3b4819e0
3c20fb22
3a6a5142
bc8b2420
bc922318
bd104e62
3cb9756d
bc85e3da
bcd79af2
3cc41dd2
3c02ef9f
bb66c8f7
bcdc1a48
bcb1e9f2
3c9ae2da
bcde3327
3c51a21f
3d14b9cb
3c81b435
bc0bdc42
bc4cd962
bd01de27
3cd8e219
bc9157ac
3d1a2403
bbd6b731
bcf865d8
bc825397
3cbbea92
bc38ed1c
bca95209
bd28ec53
3a2caf4b
bcc25f20
3d1ecc3e
3d0714fd
bbab034e
bd2c5d20
3cbb6241
bcfbaecd
3cbcad9b
3d1e518f
3c2f1023
3cd06dd7
bba1074c
3c80ef13
3cd56d1a
bd0cee5b
3c9d2179
bacfa849
bc5a37ef
3cad7b63
bc80ffda
3cb2dd37
bd4219eb
3c48eac0
bc80baa6
bcdf7c67
3cd23d4f
bb9751c1
bcb5e52a
bd29bae4
39b16741
3c0e3187
3bf81047
bcfa786c
bca046c7
bb3e3129
bcb72a39
3a9a8f63
3d012168
3c792afa
bd27c5ac
3d20c06a
bd10afe6
3c10272a
3d1a719b
3c6132b5
3d1e0f80
bd167558
3a3c2a12
3c51f1d0
3c245910
3ca8f191
bcc9624a
bc060dcc
3c5c2b0f
3bf0109f
ba6641be
3cadbe7f
bcc126a6
bcd07a6c
3d18ac9f
bbec5d8c
3cf24b77
bb0b9ad3
3bafe2b1
3caff4ba
3c0112ba
bc9f31f4
bd0ef88c
bcc18b50
bd28fc0d
3cd84b1b
bc66601c
3ba2bd2f
3d1c1d6d
bb4de34d
3cd0b73d
3c350b0f
3d131876
baebe08e
3c67ddca
3ce4a59c
3c10c6f8
bad6f545
3c6caeea
bd33cc4b
3c9deacd
3d31d606
3d1aab47
3c814941
3bad1b57
3caa3487
bb445be5
bcd81cf8
bd04523f
bbc89606
bcb88440
bc7776c5
bc6ed02d
bc919ef9
bcb6976c
bcd5a5b9
3d1f9bdc
bd129dc7
ba98f606
bc0156ad
3d1f7d74
3d1bdc6a
bc86cebc
ba698290
bbfbdf09
3c45f7c6
3cf80560
bcdbf8ba
3cffbefd
3c3d3804
bd0903ea
bd12630f
bd0e0fc3
3d1321e6
bc738c54
bb567415
3cbd70a4
3d1846e9
bcdc9603
bd27c7c5
bcecb74e
3cd818c6
3d135222
3b42e416
bc40724b
bc1f8a09
bc4779a7
bcab8412
bce54f7b
bc78012e
39d37609
3b990372
3c8ae536
3b192500
3d01eabc
bd1029ae
3d15c209
bc6c2ce4
bd08eac0
3c13ee5f
3d104c49
3c02b049
bc8155d6
bcebc622
3d0fc936
3cd7f0ed
3b959a31
bcc01605
3c81797d
3d1614e0
3d247992
3c861c7a
bc9c0ca6
bcaeb1c4
bd2de332
3ca862f6
bc82363b
3b1230f0
3d00c0f0
b9d39a46
bd0fbfc6
bcd1f81a
bc9c1b54
bbd5e57a
3ceb4c7f
38179a66
bc224fb6
bca7c17b
3d12189c
bcaaeafb
3d1d909f
bd060675
3d1a176e
3b92288c
3c2e3609
3961bcc9
bd14d2f6
3c1c97e6
bc4e8534
bd07f66f
3d14ed2d
3d2b606b
bc37c350
bd10ea9e
3cc48063
bd366949
3d0c2b52
3b8632b5
3cf70154
3ce89a89
3b603489
bc58f92b
3c10228d
3a235d93
bce01ffb
3d03a754
bc818e75
bd2a23c0
ba0a9b24
3a74501e
bd219a84
3cac12ae
3d1b1fac
bd51fe65
bb2a087d
bd2109d0
3d320210
bc432a8d
bb8820cb
3ca04af9
3b048beb
3c108158
3cca6eb9
bc994e1a
3bd3d27b
bceedcc2
3b8d0cc3
3558cc99
bc432a8d
bbc39871
bcaf89c6
bc69d51b
bd40431c
bbb49096
3c2743a6
ba89ad93
3cc40af2
bb565ff4
3cd1ac9b
bc1aacbf
3ca3161a
bd0f2cf9
3d22e2b9
3cd75e20
bc92f901
bcfcd899
bb52fae4
bce8cef6
3d19ad86
3ce9ab2a
3c42ca15
bd199fe4
3acc2bbd
3b8cc21b
bd0a5bd9
3caaf577
bcb44c38
bd28d21c
3cbacd5b
3c4f355d
3d223c00
bcd6b229
3cd89268
bac60609
bca65ade
bce69f06
3bb1b0e8
bd0626f6
bcc8d196
bc806078
bc72a5a4
bcd173fb
bc8c77de
bba369fd
bbba5277
3cefd220
bca72a7c
bc25a89c
3b67c9a8
3d252ac7
3af4e1bf
bd060dcc
3c93836b
3d012dfd
3ce8cef6
bc808638
bd092ab7
3b15af29
bcd14c23
3cff7be1
3c4b5fe5
3b1ae6a1
bd1c1a48
bd12a737
bab5e6d7
3cb2e169
3c91cb04
3c0a9d7d
bd180e49
bbd9018e
3d11b4fe
bc533094
bd29680e
3d2ab68d
3d0d7061
bc07089d
3cc68cac
bcdb7cfe
bc9e0610
3c147c23
b88d22e0
3caa94ff
3d1dfdac
bce72325
3ce5d9e4
3d17d49d
3d28f29d
3c48b008
bce6d9be
3bfe5ae4
bcd51f82
bd012f0a
bcbf5b60
bc705ea2
bcc9ecb3
bbb386ab
3ceebb34
bd1ba5e3
3bb677f7
3cd182aa
3caf76e6
bcec9e23
3cfa28bb
3cfd9770
3cb0142f
3d313dfb
3c67924b
3c29f384
bc906cca
bd2a22b4
3cac343b
3d1a9da6
3c2a4b99
bae9b38d
bcee1deb
bbb9346a
3c4204f3
bce1f9f0
bc33c819
3b80ac63
bca8e2e3
3c95f677
3ce63843
bd059536
bcc9b414
bd1a543f
3ce8f29d
bc089f0b
3c9cb89d
3cbdccea
bd180f56
3c1332e3
3c5173fb
bd12bd3c
bba681df
bcbb0814
3bde9623
3d2b3355
bd29ea14
3d0f6380
bd20d994
bc938152
3c584902
3ce16f87
bc15aebe
bd082be9
bcfde508
3c3328b7
3cdeb95e
bc59945b
bc933a04
3cf26070
3d0fe9b8
3b192d63
bab89d6b
bc6d30f0
3bdf97ab
bcdfa00e
3d27ed85
bc91c8eb
3b5ba17c
3d3c579f
3d2540cc
3d0a1166
3c74eca7
3c95bdd7
3c50e12f
3d345cff
bcd17c5f
3c5948dc
3d3fa3ba
bc25fc7e
3cde4a38
bcf0b8d0
3c71348b
3ce9185d
bc0fe0b3
bcdff3f1
3bc5b72f
3c7bc5df
3c9884c7
bcc202da
bc2a2a0b
39ae68df
bd1ece57
3bcca12e
3d066c2b
bd16eac8
bbd4aa11
3be78fc7
3cf65dc0
bd12c27a
bbe0843a
3b40a7fb
bcbaecd0
bcef6513
bd000da2
3cd14a0a
3c3afd97
bca21c8a
bc8ea7ce
bc483233
bd10bd88
3ba5f4f2
bd0766c7
3cba6480
3bd458b2
3c82b1f7
bc65796c
3c951612
bad720e4
39ed52ff
bc9b7e0b
bd0409e5
3c823e9f
3b6d9ed4
3d05ae60
bc62ef4e
3ccfd4bf
3cfb30f9
3cc43d47
bbb8c5af
3d0896dd
3ca87e39
bcb57e67
bc616d6e
bcf66623
bc878fac
3d0b9778
bd29ad43
3d1be1a8
3c178b37
bd04fd2a
3ce47bab
3d194079
bcc00fbb
39433143
bd362414
bbab0bb2
bd1dc619
bc91c6d2
bc50aeda
3d130058
bcf7b396
3b5db8ad
bc93b3a7
3caceaaf
bc93f4aa
3d2452c6
bd10b956
bb68c6fe
bcbe2b49
bc25614e
bcc1205c
3cd99ed8
3ca4ce81
bc9702e6
3c29bcfd
bc0145e6
bd0f3669
b9864e8e
bbe3a7db
3d30c027
bd1728a6
bd2325d5
bd2c4d66
3d158d9b
bc8446b7
bcef0cfe
3cc0a8d2
bc7b506e
bd129457
3cb5c39c
3bc16235
bd12c8c5
3b2f89c6
bcb2a27f
3c70f16f
3c25614e
bb5c809f
3d35c28f
3c48f323
bd058256
3cb078d9
3d258a33
bd28d75a
3c2f89c6
3c0349cc
3c90e454
bd04c37e
bc32d906
3c621533
bc2f5771
3c8afc48
bce68e3f
3bae8b99
bc4f9e38
bcced4e5
3d258e65
3d0f3669
bd192fb2
bd17df1a
3cf76816
3cd92d99
3d42a023
bb558934
bc46de76
3ca39607
bc202d9d
bc52630f
3d2be7b0
bcc306e6
3bc200c1
3b0567b3
bbdc1971
3bdc3f31
3c5188f4
bac5d059
bad4420c
bcd0891a
3cbcc6c5
3c52fa0d
3cb59bc3
bccefed6
bc94898f
bbca28ae
3d2059a7
3b652737
bc483a97
bcafdb90
3c3f876a
3c841893
3b9bf594
3c1fd9ba
3d073040
bcd4e8fb
3cd3bf2f
3d11aeb4
3c86338b
bd0216c6
3d01a693
3d1903a7
3c40e7bc
3bb3d733
bcbdd11c
3b9930be
bb9022f8
3b9052c9
bce41f64
3b851076
bcca558f
bd108a26
3ce0242d
3cf264a1
3d488e7a
bd2e9143
3d3445ed
bbc32229
bc2d03da
bd0a2caa
3d17e77d
3bda851c
3d14ed2d
bcec69b6
bbc2996d
3cf18a87
3d507d91
3cb178b3
3d104c49
baf59da6
3b80d2f9
bd16a594
3d0d5f9a
3bc787e9
3cbec461
bc533d29
bd15f139
bcf18ca0
3d0534bd
3c477dd8
bd24ba95
39ef6a87
bd0332f0
3d2b0100
3d012cf1
bd22ef4e
bc8feef6
bbb530cf
bccdd50b
3d2974a3
3ce58601
3cbf4880
3c1f9485
bc7ba01f
bcb46fdf
3cca5bd9
bcd807ff
3b0329ec
3c38e4b8
3caaf9a9
bbf240fb
bc1ec9f0
3c6a8976
bc129cbb
bcd1116b
bca8aa43
3ca1f8e4
3c9dd7ed
bcd3f39d
bc9b1961
3c5aad60
3d1d69d3
3d1b866e
bbf94c88
bc0b27e7
3d4811b2
bc855758
3c6fd007
bbf8b22e
3c0ca6d7
bd3ce63a
3d35f80a
bc7548ed
3cc46306
3cd069a5
3c1d2469
3cf7a4e8
bc8307f2
3ce2e2b9
3cfc4c16
3c633eff
bd049cb2
3a9879df
3b572e50
3ca05bc0
bcaebe59
bcc73259
bcd0e12f
bc8a1598
3d06fdeb
3a2c931b
3d1b38d6
3d34ca0c
3c8be0df
3bbe0737
bd46961c
bb89989b
3b98b2ea
b9f05817
3d2ed246
3d24abe7
3ce44524
3cd4801f
3d05974e
3935b27f
bcd76252
3c889c1b
3caa62aa
3c7444e1
bbcb6417
3cd9817c
bd1600f3
3c752fc2
bc6f8ceb
bd3ead4f
bd178705
3d2cc815
bcdae819
bc947f13
3c9628cc
bd0575c0
3c0506d0
bcaa4b99
bc67ab75
3ac5bc37
3cd5714c
3cd25461
3cbe4042
bb3fb664
bc76598e
3cf8359c
3ceeb702
3b1cbe11
bcfa6373
3ceee957
3cec7000
3d3b5287
3b9e8160
3d310a9a
3c93be23
3c2e429e
3c69dd7f
bb7c646a
3d13e2d6
bc453f3a
bd09a88b
3d0f2064
bcb1c64c
3c87d6f9
bc837b4a
bcbaade6
397ebb06
bd12cade
3cefd007
bd071822
bd243dcd
3c0fa234
bc1dd5d4
3cf84231
bc825397
bc870b8d
bcc532a5
3c8c79f6
3d2bda0e
3c8eef1c
bccb6c7a
3be53c2f
bcd974e6
bd11cc10
3cc4cdfb
bc7c58ac
3cebf445
3c91e860
bc2349b1
bba2a32e
bd2060fe
3d0913a5
39f01d09
bba9816e
bca94bbe
3c8b3d4b
3d1dece5
3d119ce0
bba5ea0a
bc5cc63f
3c9fb82c
3d347f99
3ce8f8e8
3cec918e
bd1ccd96
3c9a77e6
3c3662fe
bba26443
3bc39d79
3c05c902
3c4b7d41
3cc14c66
3c1ffc1f
bcc2e558
3cd6d5d0
bcd48451
bcfc3b4f
bc107b78
3cd3825e
3c3e2b49
3c9e321a
3c983516
bab5faf9
3d29f59d
bb9baaec
3d775a75
bcc9ecb3
bca24cc7
3c6f672c
3c68b3b3
bcbfc86d
ba52ff41
3b861f69
bbc1c6df
3cef9db2
bc371b8b
3cbae03b
3be89804
3b07bb4b
bce19fc3
b7fe93d5
3d275eea
bc29c561
3d2b7132
bb8bc672
bcdb22d1
3cc51dac
bcbb5e0f
3d269271
3bf08a41
bd1dd7ed
3c6657b8
bb906e78
3c350b0f
bcf07e17
3d177fae
bcb061c8
3a64d806
3d198394
bcdcfcc6
bc53c793
3d00fba9
3cdf45e1
3c54cfd1
3cd9e625
bcfe9318
bccd099e
3cbf39d2
bd0814d7
bcd1a438
bd23f573
bd2646f1
bc1c3413
3d2ededb
bd116335
bbaf54ed
bd0157ef
ba60ec14
3d1918a0
3d15a5b9
bcb8da3c
3d05ab3b
bbce987f
3d13a92a
bd08ba84
3a6e7036
3d09a34d
bd0a46e1
3d2922d9
3cc91afc
bd27a0f9
3d1b291c
bd14bcf1
bd21dfb9
3c42ce46
3cdd334c
3bc3d400
3c927914
3b80d3d0
bbfc32ec
3d1b1316
3ccf50a0
bcb2af14
bcbc5dea
3d443d47
bd17225b
bd096788
bd005c46
3c6071c5
3c8b417d
3cad1aeb
3c7a1a0d
bcacf52c
bc991ff7
bd11ada7
bc520297
bbcc06d4
bb863a41
bce2541e
bcaaac11
bd106ee3
bc6353f8
bca52ce0
bc833e79
bd1c0a8d
bcfac604
bba03a9e
3ce789e7
3d18255b
bcc1d8e8
3cce2d1f
3cf03afb
bd0a7935
3d1c37a4
3cb0b5aa
bcd8cb08
3c374de0
3ccb33db
3cdba4d7
3bbf75cc
bcea8544
3b1ec121
3c9e03f7
3ca51a00
3d1a3a08
bd1f3d7d
bc2aeafb
3d123c43
bcbb96af
bd12ed78
bbbb10e3
3c7f0457
bc96d6dc
bc800eae
bcd959a3
3c54a5df
bc0556ec
bcb74de0
3c8b2852
bc133dca
3c615875
bd1712a1
bbc84803
bd1d27c4
bba4a20b
3b1df472
bcbaf74d
bbbcc1bd
3d37f173
3c9932d7
bc1857e6
bcec82e0
bd24e054
bc7f822c
3cd0d068
384150c3
bd1080b6
3c9a0275
bd3179c0
bc6807bc
bcf5d9a1
bcff5a53
bcbc6eb1
3cd5970b
3d1adfb5
3c5b1a6d
bd10fa59
bc256580
3c47c526
3bb88af6
bcb267c7
3be8f6cf
bbff7597
3c1679bf
bae37301
bc9e7d9a
3c4e5711
bbc8c932
bc36bb13
3caf709b
bce94ab2
3d1ebe9d
3cbc18b5
bd1c8217
3d47abfc
3cc1e57e
bd4a1166
3c9f0803
3c36848c
bc2747d8
bcdedaec
3ce9014b
bcf7707a
bc0596ad
3a78db1e
3c257215
bd312c28
3ca91b82
bcaeab7a
bc87570c
3d214cec
3d096788
bcbf8db5
bc9e16d7
3b97b162
bd023e9f
3cead927
39077c8c
bced655e
3c0eff0c
bcba0c6b
3d13b6cc
bcd141a7
bcfb5287
bbe425af
bd324639
bc1f8a09
3a2f24c6
baa317c8
bccc814d
bc64b44a
bd164b66
bcd17c5f
3cdf7836
3ba8b744
bcd54973
3ceff195
3c806f26
3c6820e6
3ca53fc0
bcee5abc
b9b3e4c9
3c4bd124
3b4163e3
bcfb2aae
3c27fc33
3ba8ef78
bc45da6a
bc37f5a5
3ba84cbb
bd25625a
bbf6082f
bc0c8473
3c7c115e
3c9c9d5a
bc53d85a
bca3a4b5
bcc6ae3a
bca465a5
bd055a7d
3cb3dd12
bc99f7f9
3c1f7f8d
3d201472
3cb72a39
3ae78d42
bb9747b0
3ce18ce3
bd294ccb
bcc3bd5a
3cfab325
bb9354dc
bc34d489
bbdbd076
3c8446b7
ba4a00c0
bc136a40
bb6726eb
bc8b673c
3d0c78ea
3bdb8420
bd155b46
bbae08bc
3cff1b69
bc98c7e3
bd043915
bd3403de
bd13671b
3cae3609
bd270f39
bbc3cfce
bce29952
3ceba494
3c4d6c2f
3cd0763a
bcd95571
bd1a9436
3ad48528
3c65c91d
bd1e12a5
3d15ebfb
bcccfd09
3c01dc0e
3cd27807
bba6a297
3d229308
3c6c3dab
bcfff152
bc2c258d
bc75989e
3cd98e11
3d1bf594
3ca6937d
3b812a37
3c7bb518
bc50b30b
3c5a61e1
3c071ed8
bca3ca75
bc82afde
bceff9f8
bbf41363
bd218373
3bc4d156
bd16323c
3d23f141
3d281776
bbaf5416
bcff3494
bcfdd228
3d21d96f
3d165f52
398a290e
bc859210
bc8d36b5
bd44d120
3cac94b4
3ccd4ed3
3cf47b67
3cd5043e
bc1512b7
3c8012e0
bd2a326e
3c5b8bac
bc8a009f
3bfdc08b
3d0ed917
3cdcdf6a
3cd5ed07
bd04c7b0
bd0d62bf
bc0b6cb0
3ccebdd3
bc63bcd3
bb34d204
3ce3a7db
3cf81a58
bb600fa0
bc8852b5
3d243138
3d1a847b
3d071822
bceb9a17
3c8b86b1
3d15b78d
bcb10dbf
3b9aa532
3be4d0d0
bbcb5427
bd26a982
bcdde58e
3d0e4324
bc2465a5
3cdf1e08
3cca57a8
bd13a2e0
bc45eb31
bcfd438d
bcbb7d85
bc6920c0
bc3cf0b7
3c2400fc
3cf1172f
bd1b3d08
3d01ecd5
3c76a93f
baafd8a0
bca9068a
bc3ff8a9
3d05e918
3a85213d
3d083dbc
bcba6aca
bd18cf3a
bc5ad752
3cba3012
bce92d56
bc855758
bd19d020
3ca9e908
bbaeb58b
bd14ad36
3c017b2a
bce5ecc4
3d1d2d02
bc75f4e4
3d0c79f6
3c748c2e
bcc8b008
bb8ef277
3c2a0cae
bc68ee6c
3ca9aa1d
bc84ddb5
3c24f872
3bcfb83a
3b4f6f3e
3acd2e1c
bba6af2c
3c68c8ac
3d23e187
3d1285a9
bd0014f9
bd149f95
bd2b54e3
bc9afc05
bd1f7c67
3adc83fa
3c6481f5
3c8e53eb
bd2ab368
3c85d313
3cfeb075
bcbdf091
bcb8066c
bc4aeea6
3d16bfcb
3c80baa6
3c076915
bc8e4324
3d3a4b55
3d155c53
3bdd8150
b9efc5cb
3bc42ceb
bc43efae
ba71eabe
3d060cbf
3b19b8a3
bcc382a1
3d35e0f8
bbd7c625
3caa92e6
bd061954
3b1b5f6c
3c029069
3cbda2f9
bc686402
3cf162ae
3d0205ff
bc40b567
3d353826
bc7fbce4
bcc81f54
3c8474da
bc85985b
3be59afa
3bc42f6f
bd131ec1
bd1bc127
bb540fb7
bce4cf8d
3d06cdaf
3be6ac72
bc5c6e2b
bcbeaf68
3cf3c925
3cbdf8f4
3cb32053
bbc87f60
3d175e20
3cbba344
bcfeef5f
3be6cfad
bc794424
bcffbce4
3a6e1cff
3cc8cd64
bc915161
3ca97bfa
3d1909f2
bbfdc3e6
3ace449c
3c5ec1c2
bc3b4d49
bcd73216
3ceb5f5f
3d2fd75e
3cba5c1c
bc15de23
bc5e4c51
3b8d8813
39f0e65d
3ceaa4ba
bd2e75ff
bc681883
3ce98fe7
3ca10be9
bd25753a
ba5b2906
3d175afb
3c78f473
bd2fdb90
bcc38d1e
3d366f93
3bdf09e6
3d33d9ec
bcb97dd0
3d12cf10
b9278ffc
bc992429
3c81fd9c
3c325700
bd214595
bc82d59d
bc02db7d
3c298aa8
bd07314d
bc4768e0
3d100b46
3c8c75c5
3a28b698
3a89133a
bb24b480
398109ab
3ae8279c
3c37fe09
bae00a97
bc684274
bb698138
bd08bb90
bc3c59b8
3ca4c836
3ceb7aa2
bd04ee7c
bc27daa5
bd290cd4
3d07ce96
bc3367a1
bcbd188f
bca7418d
3c7f8a8f
bc5a2b5a
3d16e04c
bd012275
bcb1183b
3cadadb8
3b989ec8
3b9a00c8
3ba6ce36
bd214cec
3caef0ae
bd15faa9
3cd9f905
3c8c5005
bd05f288
3d054691
3bf350c5
3d1c8861
bd11d68c
3c5f7a4e
3c4e075f
3cee8d11
bc786a0a
3cdddf44
3d0ab4fa
3ad8b6e6
bbf6fa9e
3d144242
3b26eeed
3cdee137
bca56799
bbcbff47
3c5f9379
bc230d4b
3c719d67
3c23ec03
3c2cc4f0
3ca6dce4
3cbf1e8e
bccc6a3c
3b26223e
3ca2d730
3caebc41
bc17dff1
bcc6fdeb
3d295747
3bdbec25
bd0cc78f
bd1b91f7
3d2c710d
3cc202da
bcc2070c
3c7cac8e
3cfcbb3d
bc0a0897
bc0f2cc4
3ccdee35
bc456d5d
3ccb2fa9
3c40c62e
3c0b5675
bd2a0770
3cae07e6
bcc40d0b
bcd24bfd
3a486001
3bf17f34
3d1144cc
bc5d377e
bcdccc8a
3d128bf4
bb2d41ed
3d177d95
3cfe1112
bb38c90a
3d14c33b
bd20f1b2
bd2eec7d
bcfc58ac
3c470436
3b5eada0
ba6eac9b
3aae825f
bcd29bae
bc9c8861
3d247dc3
3d15f139
3bef416c
3c7498c4
bcbfdf7f
3c9198af
bd1ecd4b
bab55334
bd0a265f
3b60058f
3d1c51db
3d1271bd
3c8d2c38
bc5933e3
3c17bd8c
3d139fba
3c74ba52
bd1ea572
3bd62a44
3c8259e2
bd1d92b8
3d21dda0
bc2c14c6
bc03bbe2
bca031cf
3c3aba7c
bc0d1df6
3ca8a3f9
bb4dad9d
bd04ac6d
3c0e08d7
bd1142b3
bc7bce42
bccc4ac7
3d159e62
bb8fbaf4
bc23ec03
3c656cd7
3c39841b
3cb3dd12
bd2365cb
bd1e97d0
3c63b470
bcb47629
3c658601
bce0f1b2
3cb990b0
3cc09c3d
3cba83f5
bcb4202e
bc90e23b
bb3b89ae
3c0a7610
baebbf00
bc419c17
3ca81776
3d179182
bcc054ef
bd04bd34
3b420f04
bd29a3d3
bc1604ba
3c2d6452
3cd6e8b0
bcec7eae
3c3573eb
3d02b735
3bc33c2a
39aa6f80
bd2d9cf1
bd202d9d
bc2e5bc8
3c1f941a
3cd60c7c
3d0c4370
b89be2b0
3ca24cc7
3d08f430
bcd249e4
3ce33acd
3d3a7979
3ccd22c9
3cfe5c92
3c81c4fc
bb21cb97
bca1fd15
3c02879a
bd2e9ab3
3c41ebc8
bd0e2b06
3bdd10e8
3cd39fba
3cd2e2fc
bc0858ff
3cccfd09
3cecd4aa
3cb44c38
3d0a2878
3ca6d04e
3c17d8cf
bc54c76d
bd062802
bba57cfd
3a8e0795
3d13ff26
bce2fdfc
3c363d3e
3cea5d6c
3cf8444a
3b260914
3cb7a3db
ba60acfe
bbdcd482
bca3bbc7
bd142c3d
3d0399b3
bc4c1440
3d15842b
bc95c854
3d162ae5
3d1ac14c
3b6944d3
3c0e2c13
3cf01755
bc629f9d
bc61b08a
3cb68cef
bd1dbec2
3d11ba3d
bd2ab68d
bccd338f
bbf78c94
3d03760c
bd253006
bd446845
3cdc28f6
3c3c83a9
3d1d1915
3cdf5ad9
3d073cd5
3d104a30
bc4b9ecf
3d0ad14a
bcd0a244
bd129670
3d1c5e70
3ce36d22
3c9ee02a
bc9f1cfc
3cdb0ff1
3cac5c14
3cd7c6fc
bd417b96
bd0e6080
bce6dbd7
3b127ac1
3c78c21e
bd2b0532
bc9ce4a8
3ce0bd45
bca06424
bca00c0f
3c0d6401
3b008e30
3d0daa0d
bcc69510
3c2d1d04
bca48733
b9eefdcf
3c076f60
3cf89c5e
3cfb6fe3
3b841172
3c712c28
bc84a948
bcc80410
3cea0fd4
3d00c415
3c6a209b
3d27296f
3d0a600b
3c4664d4
3cf722e2
3ce06317
3d15219b
bd15ce9e
bcd972cd
3d1b0143
bc3db5d9
3ceb8950
bd24f00f
bcb879c4
3c69af5c
3bdfcd5b
bce89225
bc58127b
bca9845e
3cb8433d
bca2dd7b
3d232a06
bb706e93
3ccd1202
3aa2298b
bd14d1e9
bc9eeed9
39c6c4a0
bd2baade
3afd1641
bd24e26d
3cfda1ec
3cb29c34
3ca3400c
3ce425af
bd2f3f53
3d14c33b
bb9ad42c
3d15e6bc
bcfd9557
bcb9f98b
bd2223e2
3cd5f99c
bd0f7015
3cee34fc
bd29fbe7
3d1f16b1
bca1059f
3d07f77b
ba30fa89
3bc16088
bcbbb40b
bc293294
bd13671b
bcd9578a
3cee6d9c
bcb6dca0
3cb8a19d
3cdf8f47
3b9f5672
bcc3bf72
bc5245b3
bc9897a6
bca55087
3d261284
3c9b152f
3d01743f
3cae1ef7
3d151b50
bcd93e60
3cb549f9
bc3af966
ba693563
3cbc5586
3d1478c8
3c503969
bcdadb83
bce8f6cf
bcda964f
3ce2f9ca
bcf7d73d
3c867ad9
bcad666b
3c53a605
3b99c60f
3d10507a
3cff66e8
bd1c5825
bcf88db0
bcc358b0
bcd625a7
baab3172
3d0ccff2
3c4a6ca0
bba27aea
bca6d8b2
bcb8ed1c
bc8c5eb3
bbd0fb30
bd25b74a
3bb0714c
3cd931ca
bcf82907
3cb7e6f7
3c818a44
3d1017db
bd37c99b
bd2ec4a4
3d210be9
bb6388d1
3c0c3598
bc39f128
3c77d73d
3b54af19
bc1e21bf
3b9f000b
bd23a3a9
3cfe5a79
bd17b95a
bc43d684
3cb74795
3c5184c2
bc057bd5
3bb02928
3c083ce5
bd159b3d
3c13590e
bce3b8a2
bbcc1e51
bc496463
bd140bbb
bcf863bf
bd02eec8
bd034c1b
3d120e1f
bcf33871
bce16d6e
bd183c6d
3c06bb71
3d39fba4
bd02fa51
3c96fa83
3c12011f
bcabf338
3c2bd5dc
bd3403de
3c7fc979
bc1686c0
3c976bc2
3d06ca8a
bcdaa92e
bd1f42bb
3ca1943a
bccf5f4e
3a9df7cd
b930acb1
3ca56367
bd18b0d1
3ceab9b2
bd23e6c5
3cf0bae9
bba56de3
ba031d2b
bd3f9618
bb9c0ebf
bd1740c4
3cbaade6
bc81387a
3ba836eb
3c819d24
3cfe75bc
bd2e9143
3c861a61
3c92f6e8
bd1103c9
3cca9260
3c7cc5b9
bd209fe8
3bc2a887
bba0cc94
bc85857b
3aaca5e6
3d2109d0
3ce24357
bd167caf
bc4c4263
3a8d4f08
bc23f035
3a9c977b
bcae2974
3cb46131
bc27008a
3a0fe362
3c8df15a
bcd6adf7
3c7adafd
bcaaf9a9
3c38cb8e
bd23fbbd
3b8807a1
3d11fb40
bc12a950
bc69d0ea
3a609e3b
3d094a2c
bba1c913
3ba3c643
3cae48e9
bd04f095
3c851a87
bd02a455
bd1080b6
3cbd6a59
bb5b7e40
bcd87d70
3cbb7d85
bbe1fa5b
3ca37692
3ccf67b2
bd1a469d
3c03b1d1
ba611a62
3d0093d9
bcdd8948
3cdba2be
3d1096bc
bce321a3
bc4e208a
bcfbd8be
bbf822bc
bc3224ab
3d389f84
bca467be
3d0adddf
3cf26aec
3c91fd59
3bb38350
3bbaf966
bc403361
bc8ef34d
bd1c6d1e
3b98ba77
bd3ecfea
3d0b3e57
3cf8811b
3c8c3090
3ca58927
3b7d057a
3cd9af9f
bd0bf7f0
3b6a4584
bcbbcf4f
bca15b9a
3ca1a933
bd0898f6
bd1421c0
bc8f1b26
3a05457a
bc49b414
3d313f07
bd2dfd69
3c3039ef
3c865732
3c7d5022
bcedfa44
bc8abb45
bcdc8b87
b9462e4d
bceb484d
bcfaaef3
3c48c500
bc3951c6
3b56d3b7
bd0c197e
bcc20f6f
3bc58b90
bd39c51e
bcb708ab
3c0da6b2
3cc22899
bd122531
3cc1ebc8
bcb05101
3d0e746d
bcedce3a
baa63d16
3d12220c
bc6a52f0
bc75d788
3bc68a93
3c66c094
bb58eff1
3c50d499
bc8f92b0
3c1b0c60
3ce6e222
3c435ce2
bc81882b
3c3d09e1
bb37655c
3c872d1b
bccef241
bcda09cc
3ca2595c
bca5d074
3b8a7e74
3c0176f9
3c61ef74
bb019dfa
3c633acd
3cde82d8
bc300368
3cc28912
bc996d8f
3cb59bc3
3bba17be
3c5d1e54
39f2fc8c
3bc8ca09
3c375211
3d1409a2
bcda0be5
bd1819d2
bc16fd73
3d164628
bb9f8f7d
3c020bde
bcbec67a
3c57d7c3
3b8c2898
3ba7bfcd
bbe68bbb
bc999136
bca56367
3c725a25
bcd1569f
3b33d809
ba534d1a
3cae2da5
3c88b546
bbb45359
bd0e4fb9
3c7c43b3
bc450ce5
3d2afff3
bc431162
bc2b7dc8
bc97720d
3c176aeb
bcb94531
bcf18a87
bd2f6a51
3c933a04
3d6e31d7
3b466fbb
bc786e3b
bc5cf894
3bcf1801
bcfd2e94
3cbf37b9
3b8fec72
3a7d5352
3cdadfb5
bcdf9379
bd0a3e7d
3ced2242
bce41701
bcdcbff4
3ceec398
bc66f2e9
ba299ac4
3d09a672
3cf9ce8e
ba5b3114
bceaf683
3d31e9f2
3d1e54b5
bc2b9b24
3cc43f60
3d042fa5
bc9a6938
bac6be96
3c0e4903
bce262cc
3c380a9e
3d18750c
bd2006d1
3c122b7c
3a8d9f90
bd095d0b
bbaf6761
3ca0d563
bd2ffd1e
3d08e68e
bc827b70
3d0cc89b
bd3d9cae
3d13b5bf
ba4f88bf
bc07a3ce
bc1870a5
bcf709b7
3c964c73
3cd8ff76
3ca615a9
3cd5885d
3d25b963
3c06fe21
3cd3d20f
bcbef06b
bcdcd4ed
3cbb341e
bcd3c361
ba9d45f7
bd304ff4
bd29d734
bcb2d6ed
3bf5c5ea
3d0579f2
bc9d4307
3cc97b74
3cadcb14
3bd69aac
bbe2eda1
bcb8bef9
3cdea034
3cfe5647
bd0b0293
bb0dab4f
bcce4c94
3c836eb5
bccd594f
bc78b589
bd1e99e9
3d46f47b
3c30079a
baeb214c
bca072d2
bcc141ea
bccedd48
3c1aa095
3cf58e22
bc2e6c8f
bd25c91d
3c6be597
3c503969
bbe09f12
3d1f99c4
bca0d131
bb9d1478
3b19681b
3d00a4a0
3d0fd9fd
3d06f36f
bcb608d1
bc962cfe
bc492578
3b7558dd
3cfcf1c3
bad869b9
3d0ac7da
bc9f5169
bbd4f30c
3d3e9318
3cb2074f
bd0bac71
bd00dc33
bc967caf
3d255e29
3bbee2ff
3ce40421
3d3214f0
3d1537a0
bd3f92f3
bd0cf074
3d04f4c7
3c0ddab4
bcb250b5
3d1f43c8
bca52ac7
3cd82129
3b077ee5
bcfa7222
bd093faf
bd13ceea
bd1286b6
3afc1087
3b4fc174
3cbf1412
3cb78cca
3cf63c32
bd24ffc9
3c4c78ea
3c0ad90c
bc4c7086
3cf4299e
bcadb61c
bd2b4635
3c319e73
3d15b35b
3c55fdce
3cb1d92b
3bd9c27f
bd1cbff4
bc7c9ff9
3cccdfad
bd17dae8
bc62d624
3c3630a9
3cee84ad
bd02235b
3c6e6b83
bba24d9d
3d2c9d17
bd127c39
3ced7e89
3cb02d5a
3ce4bec6
bcf14552
ba2218c4
3c9ba5e3
3c708030
bbd15776
3c890b41
3caf251c
bc011178
3cf496ab
3d0dc444
bc8858ff
bbf856be
bc733440
3d10edc4
bbcee759
bccf91a3
3d0561d4
bd0915be
bb93a2e0
3d04c48b
bd52ab69
bb018b86
3d4fdd23
ba1cd289
bcea7ac8
bce8b3b3
bb378034
bd04ccee
3ccebfec
3d17928e
bc220869
3ba0e695
bccb0e1b
bca415f4
bb4ba22a
3c110145
bc5ee782
bd19ce07
3cb02b41
bd099ae9
3d14db59
3d3648c7
bbadc16f
bc4a6ca0
bc659296
bc6603d5
bc378466
bd21fafd
3c69f6a9
bcf0a3d7
3a502dd5
bd0a41a2
3c99a848
bd0204f3
bcd83409
bd2bdc27
bca109d0
bc754d1f
bc728c7a
3c5d7668
3d2bc622
3c9d68c7
bc5987c6
bcca3401
3b8e2ad1
bb88963c
bd18e864
bd1e58e6
3ce5c91d
bd11d367
bd24388f
bcd51f82
3c864ecf
ba48f7ab
3c09ef6d
3d09c800
bd073de2
3d03b4f6
bcf71865
bcd1bd62
bb9a3825
3bd7f6cc
3cba5e35
3cbb688c
bc82602d
3d09be90
3cf02c4d
bcb26395
bd1e9f27
3d29da59
bd263d81
bcb99d45
bd0bcada
babf56c3
3cc929aa
bca88052
bd0ed917
bc88ede5
3c3352a8
3d0901d2
bd09fd7a
3ccb5569
3cf58e22
bc30c027
bc8a7e74
bceac216
3ce76428
3ca15337
3d1d4952
3cba7760
bc711f92
bd04ed70
3cb354c1
3c9e29b7
bd0b3e57
3c0b53f1
3b9fc6da
bcef4385
3d1cc426
3ccfe586
bbb7de28
bbdd6d2e
3c1d111d
3ba926d5
bc375a75
bd0e581d
3cdc8755
bcce91c9
bcf1f362
bd15ee13
3c1a0565
3d325b31
bc3e7f2c
bcf0739b
bce1c79b
3d0d594f
bb596f72
3a847cd2
bbab0a04
bd1246bf
3d11d367
3c8a30db
bd1a7b0b
3d23a3a9
3c04dc08
3d118c19
bd175c07
3cffc760
3b9cbfbf
3cc64990
3d0a4f44
bbe2089e
3d0c5c9a
3bba6699
3d0385c6
3d02f838
bd1a682b
3c85b7d0
3ca28dca
3d3559b4
3c02e15c
bc976ff4
bb07fb0c
3d25efe9
3cdd377e
bd0cf28c
bce22a2c
bc68bc17
3cf722e2
bbe28d28
3c80b45b
bc884407
3c011ccb
3c298aa8
bc003bfb
3d259296
bcf75105
bd15af29
bc6a960b
bd07d6f9
bc911f0c
3cd72368
3d1f8d2e
3d235e74
3cb80022
3cdb20b8
3d283a11
3d14e6e2
bc65bc88
bca07f67
bb2d596a
bcdcd706
bd0adddf
3cf04ff4
3d282624
bcdad96a
bc24b988
bcd19158
bbf0dd4d
3c88e9b4
3d238eb0
bd2b2bfe
bb5f0d41
3cb089a0
bd2c6de7
bc95b9a6
3c7d8277
3d0666ed
bce3c750
bb161078
3b129747
3d18201d
bce338b4
bca5a683
3d090f73
3bf185ea
3c0f8b23
39544613
3d34a44c
bbed1039
bcbe78e2
bc863172
bcedc7ef
3ba31a4c
3c6f62fa
bcb19829
3c942d49
bbdacfc5
bae9d1c0
bd2e4b02
3ce74d16
bbb5aea3
bbc169c2
3aefbe69
bc42a023
bcc3bf72
bd23779f
3b1656ef
3d15592e
bcb3fa6e
3d2603d5
3d364cf9
bc93b3a7
bb95604f
bcefd007
bc252ac7
bd20f3cb
bd03e319
bd1e03f7
3be7a08e
3d1ef30a
3cba1f4b
bbb2a6b1
bc44a409
3c80de4c
bc9ee675
bc9dd3bb
3d0a265f
3ced9168
3cb9a5a9
3d2d3b6d
3cb46562
bc62b496
3cc1248d
3d1904b4
3d0acaff
3b21eb78
bbbe1ddd
bb82b120
3cc419a0
3cf5be5e
3c0ea2c6
bcc3fa2b
3b27066a
3d222a2c
3a34a6bb
bc362846
39df637d
3c1eb207
bd19d55e
bcaf20ea
3d0333fd
3bcaa327
bc01838e
3c0684ea
bab42891
bc9a9da6
bb874935
bcdcdb38
bafbabdd
bc831ceb
bc31d4fa
3cb4efcc
bc33edd9
bd337543
ba86777e
3cccfaf0
3c2e3e6c
3c4332f0
bbd717a9
bd0cc250
bce3cd9a
3d04bf4d
bb7a1e3f
bc12a7a2
3c7ce315
3d05564b
3cb122b8
3cae5797
3d2ab474
bd11a32b
3ca7e73a
bcf060bb
bd068662
bc6032db
bc9333b9
bc57e88a
bb8d60a6
3d049ecb
bd4fe79f
3c159b07
3cdda05a
bd1c896e
3c998d04
bcdbe1a8
bbf46314
bc9a0cf2
3b85454f
bd1b6a1f
bd1b1fac
bd24aada
3c098047
3ce6cd29
bc235f81
bc94727e
bc85ab3b
bd3a57eb
3c136f49
bbe20a4c
bcc195cd
3d0e3cda
bcf14339
bcbfdf7f
bccb9885
bcf7079e
3c84db9c
3b9132c3
bd01c3f0
bac069e8
bb5a7a34
bcaf709b
bc2b606b
3c2871a4
bb9adbb9
3d042310
bcde1c15
bc6cedd5
3cfc829d
3cafdda9
bc10afe6
bce837f8
bd05f06f
bd32f556
3cdba909
3ceededb
3d1a21ea
bc68a2ec
bb46fca9
3bfaee48
bb821294
bc1f8c8d
bcffed20
bc51cc10
bafe3a2d
bca326e1
bb07d7d0
bc95464e
bd1c725c
bcd12ec7
3c777af6
bd1a8694
3beacc92
bc9142b3
bd061a61
bbbf302c
bbbcaa40
3cb5e95b
bc6c56d6
3d095f24
b80f854c
3c1d2616
bb486a67
3cc18f82
3d097311
3c90bc7b
bcf3e469
3d02e98a
3d230447
3ce9b38d
3ca4d09a
bcaa64c3
3ad3f4df
bcd0c3d2
bc6f5a96
bc360f1b
bd3a908a
bd02cf53
bb88e440
bb984861
bce71cda
3d6cf313
3d3608d1
3cb77186
3c1de7dd
bc364e05
bc98116f
3d0710cb
bd407464
bd1e81cb
3d475f70
3b19fd6d
3ca7f3cf
bcaaa194
bd0827b7
3c10b69c
3d3584b2
3d2177ea
3c4e1c58
bc5594f2
3d23a4b5
3d2641b3
3b01f538
3c6ddce8
3cc0a8d2
3bde4fac
bce492bc
bbac39af
3d2b3355
bab66d0f
3d29fadb
3d10257d
bb7e11e9
3c82602d
bc565a14
bbd36065
bcb2ca58
bce19daa
3d0a9cdc
3cb89b52
3c88fc93
bca962d0
bc564d7f
3cfd028a
bce88bdb
bcddcc64
3c365ecc
bb78ad25
3d050efe
3cf94856
bc554541
3ba3e6fa
3ca1d96f
3bcdb1cf
bc38bac7
bd0e0653
3c260d45
bcf90d9d
bc8fe048
bcd3f184
bc837718
bd0bec68
3d249f51
bcd0edc4
3ccb6849
3b892685
bd05b292
3cea7696
3c50917d
3c6264e5
bcb47629
bd0ad688
bd21cde6
bb946eb7
bc550a89
bc6a0fd4
bc2a6091
bd0969a1
3c469b5a
3bade2fd
3c5612c7
3d03afb8
3d20fd3b
bc4e52df
3b0c85b5
bd032db2
3d345cff
3cb6c376
bc97d49d
bc18676a
3cb5d67c
bd187619
bc4b6417
3cf4e011
bd0f10aa
bccf5d35
3cdfb2ee
3c486057
bcaa1512
bc097cec
bc9c9f73
bca45f5b
bd105293
bca59c06
3c89528f
3a84365b
3b926d55
bd270c13
bc23d486
3d013554
3d20e51d
bc2c929b
3b506431
3cd9b1b8
3ceb3355
bce1fe22
3c9ca3a5
bd012275
3c6325d5
3d24851b
3d0ce1c6
bc07d765
bcafb3b7
bcafea3e
bc8dd617
3ce1975f
bd30196e
3bb97d65
3c3d87b5
bd08e9b4
bd1a47aa
3cdb8dc5
3c5efc7a
3c4f0f9d
bcd918a0
3c833c60
3a851076
bd180c31
3ccd24e1
bc9fadb0
bcf24d90
3cfb762e
babe9780
3b81c136
3c59b5e9
3d222e5e
39c2b5c8
bd0dfefc
3cc67382
3c478a6e
bbfea309
3d0cdfad
3c2593a3
bca06424
3c1927ef
3caacb86
bd286d72
3bf76882
3cfbbf94
bd102eec
bca8e4fc
3d0c9753
3c9b3d08
3c5cd706
3cc4588a
3c8b6d87
bcfeb28e
bce6e654
bcf25a25
bc23684f
3d268901
3d3543af
3d08ede5
3d0d0bb7
3ce785b6
3cbab431
3d14b9cb
bd4851a8
3c30c459
3c5cdf6a
bc364170
3cf7f280
bcff38c5
bba950c7
bd207810
3d1aa3f0
bcb0079a
3d2b430f
bc947f13
3c5f6988
bd0f4517
3bc24f9b
3d21719f
3cfec354
bb2f866b
bc310774
bcc11a11
bc117bbe
3bde2916
bb98bcfb
bc017abf
3c9d16fd
3cf0a1be
3d000eae
bbf3831a
bcab66b6
3d305a71
bd084838
bd1a4bdc
3c8a30db
bca28bb1
3c876c05
3cb178b3
bcf02a35
bd1205bc
3c7e60c4
3c4c0bdd
3d1d91ac
3cf4384c
3c94141f
3a007962
3ceadd59
3c82ff8f
bc6f8056
3bc7c0f4
bd37b289
3d1b402d
3ca923e6
bb629f9d
3c584902
3d0284e0
bb8127b3
bd0229a6
3c88ede5
3bb11ef1
3c1b3220
bc52630f
bb3bf6bc
bcb48d3b
b884892b
3abe90ca
3cd9fb1e
3d1f7729
3d083233
bd112663
bc9af5ba
bd17b741
3be8c47a
3ca8da7f
bc56e47e
3c5f71eb
bb530d59
3b6d74e3
bcc55001
bbe96661
3ca8d435
bcabc72e
bbe33c7b
bd0386d3
3c491d15
bcdb8349
bd23f035
bcaaf577
bcbacb43
3c988d2a
3ceaf89c
3ce5668c
3ca7392a
bc8a86d7
bd07b784
3d0e6c09
bb4cecad
bc16172e
bc7d0071
3c9f83be
3d2ae5bd
bcc68017
3cb21816
bcb80885
bc92d55a
bb525edd
bd09e668
bb966384
bb9f8ea6
3c9f0e4e
bbe699fd
3cd3cbc5
3b9a9f53
bcde7c8d
bc81dc0e
bccffeb0
3d085b18
bcbaa36a
bd250508
bc456d5d
bc3c48f1
bb3ef3c6
bd11287c
bb5bd3d1
ba676bb5
3d0e92d5
3cc27419
bcaf2303
3c074645
bc91b824
bb928b88
3b318472
bcf81e8a
3cb5b4ee
bb258e9a
bcb178b3
bcc5692b
bbefa2bb
3c883340
3bd9bffa
bd1f6fd2
bc9dabe2
bd24f766
3c2c96cc
3c90a99b
bc545e92
3c08765c
bd186339
bc3efd00
3cd1e96c
bcabead5
3ca328fa
bce37154
3b907380
bc7127f6
bd02d9cf
bcd41d8f
3cb0a915
3cd3b4b3
3d22d0e5
3b706482
3d020c4a
3d0b6d87
3cbf6e3f
bc0790ee
3c0a8819
3d1388a9
3c22e78c
3d1a4f01
3d0126a6
ba43ba2a
bb1f1356
3ce6d9be
3cb9ffd6
bcc332f0
bc73e037
3b421767
bcb39192
3c16d168
bbfced26
3cfc8b00
3c39a177
3cac0618
bc8cc35d
bcd8c4bd
3d0038a0
3a0c0b92
3d127e52
bc784018
bcc9cf57
bc0db0c3
bc9f6ec6
3d0f6f09
3cf79208
3c5ea466
bbe25f05
3c0ed79f
3ca7f1b7
bbcd621e
3caf9229
bbd4a863
3c8ec0f9
3b289408
3c9e492c
3ce21533
bc800a7c
3cc38b05
3c83c4b1
3cb5c7ce
bc5f7e80
bd145a60
bcd885d3
bb994abf
3b71800a
bd8f1349
bbef177a
3c84f6e0
3c119554
bc72cf96
3d0f2e06
3b252b9e
3cdec80c
bd275cd1
3cde84f1
bc9a75cd
bc318549
bcfa80d0
3d0ebee0
3cc3bf72
bd1b1855
3cdfbf83
bcddfeb9
3d039abf
bcc15d2d
bca5c3df
ba440350
3d22cba7
3d142c3d
3cc83cb0
bb23684f
bc7227d0
bb2c53b1
3d0e208a
bc43efae
3c2a2a0b
3c635c5b
3c9a75cd
3c7d60e9
bce91c8f
3cebe9c9
3cd95358
3c9f0a1c
3c59274e
bcd55e6c
3d0ff328
3caf2f98
3cfbfe7e
3d00e065
3cd3cff6
bc73d7d4
3947ae2a
bd01205c
3c8b3b32
3c26fc59
bcfa52ac
3c628672
bcdf0d41
bd12c16e
bd0115df
3c9437c5
3d18750c
bcbbe660
bcc128bf
bcc7607c
bd0f776c
bccf850e
3b48ca09
bc58b1dd
bd18cf3a
3c47bcc3
3a9be249
bce86a4d
ba128a87
3c446d83
bd1c1b54
3d2502ef
bc9ce8d9
bc050f9f
bcb506dd
3d1462c3
bc0e01b6
3c247ed0
3d0f4b62
3d158538
3c8adaba
bd11d367
3d0a2878
bc6d3522
bd1ee88e
3b9afef4
3badae24
bd066f50
bd214163
3c9d712a
bce26b2f
3c6b95e6
3cd9dba9
bb8632b5
3d05479d
3c842742
bd6c300a
3a6e0f93
3c89e12a
bc83211d
bb09ca19
3c9cc31a
bd18ce2d
3d113b5c
bb762231
bcd35222
3c948777
3d21d324
bc836007
bd0f4517
bcdf351a
bca40d91
3d1ad85e
3d1e8d54
bcd0b73d
bc7a4c62
39ce0f98
bbb86537
bccbba13
3ce4302b
bd004c8c
bb888f86
3c837718
bd11c5c5
3cb2b346
3ae4f187
bba9f88c
3cc7f130
3c95f45e
3ce32e38
bc54f15e
3cc09a24
bd0f12c2
3d11a21f
3cb0446b
3d1614e0
bcd2e0e3
bd197a25
3d26106b
3d049dbf
3d28b6d8
3ce76ea4
3cfe73a3
3d0adeec
bc9c27e9
bbdaed21
3cc141ea
3d08b32d
bccbd76f
3ca7589f
3d03e532
3b86594b
3cb55ac0
3d15208e
bc01a80b
bc3d230c
bd1f8b15
3c39f98b
bcc6e08f
3c6707e1
bd30cfe1
bc5045fe
3c27c17b
3bc26dce
3d006f26
3c96616b
bc85100a
bae77920
3cbbbe88
bbc017b3
3caf6e83
bba2bedc
3cdc9e67
3d0e67d7
bd1bc44c
3caf5fd4
3cf7ad4b
bbc358b0
bcadbe7f
3cab4528
bcc2b51c
bae75793
bb218520
bb5abefe
3cb0e1b5
bccd67fd
3c76c69b
bcd8409e
3d3b29a2
3b8f72cf
bc791e64
3b26853a
bcf62952
bbf7e72d
bce0ae97
3c51bf7b
bc8409e5
bb1e3c97
3cdff3f1
3b74c031
bd303afb
3b1fc6da
3b12c2e6
bd3d4e09
3d56616b
bcd40032
3ce67514
3cf08462
bd0e8b7e
3c37ae58
3d08beb6
3c4c4263
386e6bc8
bd1a9a80
bc291106
bc447a18
3cba3012
3cf0cdc8
bc5a9004
bc705a71
3d279ee0
3bb19462
bcfb5d03
3c24766c
3c52fe3f
3cc432ca
bcf81e8a
3ba22dbd
3cc31594
bd031f04
bc4a2db6
3c99c38b
3c8d0cc3
3d15592e
b96c3116
bc3b773a
3d195fee
3cacb429
3b8e63db
3d2a582e
bd0e789e
bd21cef2
3c740a28
bd042635
bcc2fe82
3c6a6c1a
bc230e22
bc43a42f
bb2b2abc
bcff865d
3cbcc294
3cddca4b
b9c849db
bcd8eeaf
bd0902de
bb6e037e
3bc13d4d
bcadbc66
bcc2acb8
bc8372e7
3beefe50
bcec5b08
bd15d702
bc47da1f
bc240d91
bcd78c43
3c96a6a0
bcc76d11
3ccb039f
bcbb6ed6
3d0a7a42
bceb0532
bbe2eda1
3c98b0d1
bc3d230c
3bc001e3
bb8962eb
bc346bad
bcd9e83e
3bb417ca
bc3bf50e
3c3ef49d
3cb57a35
bd07b13a
bc8e7bc4
bc437e6f
bce75bc4
bbfcad65
bc13c90b
bbcfede9
bd0448cf
3cfc9ff9
3caba7b9
3d1de376
3ccd9a52
bd20fc2f
bc1d5d73
3d348909
3cbeb181
bd07a4a5
bcaf0bf2
bd1f9df5
3d18793e
bcb5696e
3d22a800
3cfeac43
3bd8f854
bcfec99f
bd093965
bcdf2ecf
3ca491b0
bcc2d8c3
bbc0f95a
bc0a51fe
3d1615ec
3c3035bd
bbcc73e1
baa1a6ae
bcc4c7b0
3c043874
bd15d5f5
bcd349bf
3ce61d00
3d298890
3c986fce
bd143d04
bc3139c9
bd139000
3a2f82ba
bc889c1b
3c833e79
bb47efee
3ce920c0
3cebacf7
3a66b932
3d132a49
bc3ef8cf
3be6ac72
3c38305e
3c35c39c
3d237692
3a3b5ab5
bd251f3f
3bbeaacb
3d0bed74
3cf9ee03
bbb30800
bcb80453
bbe71e88
3c61e2df
bbf69caa
3d21b9fa
3cf08aad
3a8080c4
bcf78573
bbc6aea6
3cfa11a9
3cf06706
3d180f56
3bff1879
3d11a006
3c1797cc
3bd8b38b
bd1f57b4
3aa43859
3beb9d72
3c999fe4
bcb66949
bb8bb682
3d2172ac
3c4fd8f1
bd21c9b4
bc90be94
39d33afb
bd27008a
3b48f24d
3d019f3c
3c7ca85d
bbb001bb
bcffef39
bccf1e4b
bcfc6b8b
bd1f3733
3d106ee3
bcf060bb
3cbe1c9b
3c88e582
bd176039
bccb599b
bc18145e
3d1e9079
bd074107
3d1a7e31
bcda6613
3bec537b
3d039bcc
baf5b1c8
3c7ace68
3d229521
3c927b2d
bd080d80
bcd68e82
3d0ff64d
bc81d3aa
3bb1521d
3b4c1949
bc3be879
3d0ad46f
bc4d4aa1
bd05b292
3d34751d
3d41cf78
3d053d21
3cd2a844
bb8a6549
bcc86f05
bcc636b1
bd0f12c2
3cfb41c0
3c2e6c8f
3cf8c650
bd022dd8
bc48a7a4
3c536b4c
3cb4677b
bc7ff79d
3ca47022
bd0cc038
bcabe8bc
bbff4c7c
bc8dfdf0
3c006f26
3c0f0190
bbb446c4
3ce9014b
bcb89507
bc82b628
3adf1fb6
3cc764ae
bc950fc7
bd3224ab
bc415098
bc32bbaa
bd0fcc5c
bcf1dc51
bcefcbd5
3cf70bd0
3c8257c9
3b070974
3cb62c77
bc38ae32
3d13f184
bb226af9
3d083665
bc7dfc1a
bc16c82e
bc497d8d
3b7a69be
3c3441bc
3c9d7ba6
3d361dc9
bd1104d5
3ae46eaa
3bc403d0
bc7a58f7
bb608bc6
3d0e68e4
3c997c3d
bd008fa8
bca8b6d8
3cec7864
bcc24a27
3d26a444
3cddce7d
3d04b4d0
bd2ffc11
3d292924
3ca3e187
baec9265
bcecaab9
bcede97d
3ab77623
bd173754
3cbefae8
3ce7e847
bc2e31d7
3d693294
3d37ed42
bbf266ba
3d04c9c9
3c3be447
bd1f4b1f
3c075778
3d30a1be
3d170b4a
3d5b1423
3c9e9f27
bc8c9108
3cfe9963
3b82377d
bd2f954f
bd262670
bd0c0054
3cd373b0
3a6ac154
3ba3c71a
3d23d4f1
3c716f44
bd1e657c
bd244d87
3cda6e76
bce1cfff
3c6f88b9
bc947f13
bc6ebb34
bd078423
bc75dbba
bcb60f1b
bd30e0a8
bd18b60f
3cc6f7a1
3c596a6a
3cb0e7ff
bab2c189
3c8f8e7e
3cfd1138
bca8d003
bb62ff3e
bbb8b0b6
3cce9c45
3d298890
bcaf09d9
3c5da8bd
3c92e83a
bcd03969
3cea24cc
3c23f466
3c8752db
3c9e9f27
3d08754f
bc49d5a2
3cb91d58
bb8f5a7b
3cb1d713
bd1d2f1b
bab9b746
3d24f97f
bc20b6c4
bce26b2f
3c44c597
bd196c83
3ce3b470
3d2fbe34
bcd219a8
3ceabbcb
bc587b57
3c340f67
3d0fadf3
3d10c4df
3c5d93c4
bc9db446
bcd44999
3d3a1d32
3cba7fc3
bce7e847
bc5f223a
3c4b31c2
3d11fe65
3c8a222d
bceeefa2
3cda964f
3c51c7de
bd1ac040
bd02bd7f
bd132c62
bcc0639d
bcb6d00b
bd0db37d
bc88509c
bb986918
3c1df90f
bd0e1a3f
3c06cc37
bc0f68be
3c1c6d1e
3ce8943e
bc4d0353
bc920e1f
3ca4095f
3cf04bc2
bc6a0ba2
3aebcfc7
3c00d86d
3d228134
3c314ec2
bbd4c412
bc087ebf
3cf80991
bb2c0b8c
3c3bdbe4
bbc9c404
bc56ba8c
3945e074
bba75e7e
bc5cf894
3c9fa765
bcf9a6b5
bc80ffda
bb35bb38
3cf60bf6
3d4038a0
bcf2c732
bc82de01
bca01eef
bcec050c
bbd9b86e
3cd49518
3cf995ee
3cc87fcc
3d1f81a6
3c3afd97
bc97b741
3caa1b5c
bca3358f
bca4fca4
bd10c2c6
3cb291b8
3cd2c5a0
3b6c5cb5
3caeddce
3d24302b
bcb3cc4b
bcf10ecb
3bea7ce1
3c84f4c7
bc86d506
bd10c910
bd28a0d3
bc300368
bc3f76a3
3cb73d19
bd0f8940
3ce310dc
bcd46d40
bcb1fab9
bcd701da
3cb39192
bcd35c9e
bd4317ad
bcfa3550
3b83126f
bc05fddb
bc855b8a
3d0bd662
bd2291fb
3d02699c
bca22920
3d0f5f4e
3d0e7792
3cd3ed52
3c18c5ca
39ff250f
3d1119ce
3d295853
bbcf9d62
3bd4067d
3cf8ad25
bbb75ea6
3c2643cc
3d00d0ab
bccea290
bcda8156
bc1a9d3a
bab44a1f
3c401e69
bb539390
bd3f21b4
bbec3548
3c5b0dd8
bcede332
3bc67169
3cd00b46
3c89e55c
bca0a0f5
3d1e1d21
3cc213a1
bc8d8234
3ca808c8
bc46b8b7
bc3f0dc7
bd27008a
3c827fa2
3ca7f1b7
bca90471
3cf63a19
bd258f71
3cf15400
bcd946c3
bd221533
3d19e0e7
3c5af8df
bbbe398c
3cde00d2
3cd03537
3d09f517
bc6dedaf
3bd41d23
bcf0cfe1
3aec6d7c
bcc94706
3cdb530d
3cd99cbf
bc9ecd4b
bce559f7
3bc15b80
3cfe1976
bca06a6e
3beb173b
3cd03750
bc8e6d16
3d167dbb
bcdf06f7
3ca9068a
bcb0079a
bb2f7e07
bc591ab9
bcafc8b0
3bfa2270
3d62ec29
3d1881a1
3c477143
bd23ed0f
3cb72607
bcf7db6e
3c5e8709
bc973fb8
bc5184c2
3c9884c7
bc50a244
bd1119ce
3c99f1ae
3ca9e6ef
bd10ff97
bab3a5b4
bc819f3c
bd16d5d0
3bb4b3d1
bcc7d806
3c5a9c99
3cf8dd61
bcc896dd
3c147497
bd2d3954
bd183d79
3cec8d5c
bce4c511
3c2133c2
bcdae1ce
3cf357e6
bd420a31
bc7ec56d
3d1931ca
bd5c8755
3d333ca3
3c9ceaf2
3d1ad96a
bd46f7a1
b9338c34
bd135547
bbe61721
3c5a9436
3bb47fcf
bcab3893
bc94a6ec
bbd1c128
3d3090f7
3c1a4957
bca98cc1
bb2c0831
bc28fc0d
3c6bf22c
bca45d42
3d24ef03
3c77fcfc
bd41f751
bcb83ada
bd1ae2da
3d19780c
bd0539fc
bac4410d
3c66362a
bd14d940
bcd6fda8
bca36c16
3a6beffe
babc7135
3cf5360d
bd1e54b5
3d2aab04
bce4473d
3c94b381
bc3c3c5c
bcb0b7c3
3b6ff0be
3c5b2b34
3cad4f59
bd3b5287
3bb7457c
bc0282fd
3b0018bf
bc0e8782
3ca6d267
3d0b5cc0
bc94ccab
3d0aa540
3b2f4d60
3d144aa5
3d0d0460
3cdc2b0f
bc9e5e24
bc90c910
3c619b91
bc439bcc
bceb3dd1
bcd0203e
3cc113c7
3d08ebcc
3c9795b3
bc810c6f
bc73732a
3ca7f3cf
3bbf85bc
3ccab1d5
bd129670
3d0330d7
bcc167a9
bc7f609e
bcd28d00
bc6aa2a1
bcaad81b
3c8a4e38
3ca09aaa
3bc155a0
bc37b6bb
3d021d11
bb06d8cd
bc10a3bc
3cc69d73
bbcacec6
3a427358
bc9331a1
3c8a2014
bd2cc0be
bc99bb28
3bd47d9b
3cf9053a
bd084620
3cbd48cb
bb9cc31a
bcc5d639
bce3baba
3c1450f0
bca339c1
3cbd2fa1
3cc406c0
3cc1f645
bcf1843c
bc73a57f
bc3890d6
bd06bf01
bcc22681
bb1f11a9
3d2b92c0
bcd59924
3d132724
3d185dfb
3c8fc2ec
3c74623d
3c1e5ba0
bd07e9d9
bc97225b
3d53e5fb
bb628b7b
3c476d11
3d27ed85
3b974f3c
bd2bf120
39ab40e1
bcaa3cea
3c3e4cd7
bcc14e7f
bcdd5b25
bcc2bf98
bb5c783b
bd04651f
bce4191a
bd04cf07
bb2fdbfb
3c1a7a6a
3ca9bcfd
3b5b32c1
3cf1cb8a
bd27dcbe
3cf9d4d8
bd2cbb80
bd2593a3
bd2f8488
3bd5b9db
bd14a4d3
bb26f8fe
bcf33ebc
3bbd2a98
3d4357a3
bd19157b
bc454bcf
3cdcdb38
bd12c6ac
3c8917d7
bc3cdbbe
3c64a383
bcb6fc16
3ca3c212
3d08d9f9
3d162068
bd32830a
3ce85986
bb3e8d6f
3d0cf28c
bd018f82
3c8140dd
3ce22c45
3c4c2507
3d01fea8
bcaef0ae
3d2f2a5a
bd1a63fa
bcbca750
bc989375
3c55c747
bcde41d5
3cc07464
3c8029f1
3cf312b2
3d1e0935
3b4c9c25
bc6e84ad
bd02c0a5
bcbed741
3d105af7
bd2d362f
bc616d6e
3ce440f2
3c853e2d
bd3a6ce3
3ce06962
bc9871e7
bcc15f46
3ce92d56
3d2e008f
bd1d1809
3c50678c
3b057bd5
39fbaf38
bc397354
3c9f7d74
3cd13b5c
3cf4bc6a
3d2a6f3f
bce8c693
bbea91da
bd045671
bc2808c8
bcc180d4
3d250939
3d20bd45
bd162cfe
bc06792b
3c2f5771
bd16440f
bbf05cf5
3b38a5ce
3ce81238
3cfa2ad4
bcbe61d0
3c678e19
3be06962
3d03a323
bc137cb5
bcf6db94
bc40ce92
3c2cd5b7
bb6c3cd5
3d252264
bd22d2fe
3cec8f75
3cafab54
3c61719f
bbec7000
3873de92
3cdd744f
bc8e0008
bcce8965
bd16494d
3ca7e73a
bd276102
3c2e31d7
bcaea316
3d1f1173
bb0628a4
3cd8a116
bccd78c4
3bca6af3
bbc7be70
3d0f2496
3bd11d94
3d168d76
bd0f6dfc
bd0a45d4
3d4dc550
bcdae819
3ad1485d
bd1da37f
3a7f9679
bcc4ae86
bc37f5a5
3c18bd66
bbaf84bd
bce0f3cb
3c1a8918
ba4e352d
3d07a7ca
3caf0e0b
3d157471
bc3b7f9d
3c2ca362
bce160d9
3d0069e8
bb0f2827
bc5e614a
bc2465a5
bceab14f
3c648a59
bc6a91da
bc763c32
bcea960b
bc699a63
bd2d41b7
3cfe79ee
bd12aa5c
bd0f0846
3d1f6662
bd2bc1f0
3a875f04
bc6afee7
bb2c951f
3c4d24e1
bb4ccccd
3c8a82a5
3cc68230
bce2413e
3cae685e
3d27fc33
3c74a559
bce924f2
3d09c4db
3ca6c5d2
bc13deda
bcd15f03
3ceb52ca
3b644eca
bbb247e6
bc5aec4a
3cf5d788
3d182667
bc6e6b83
3c11177f
bd1daf08
bd153dea
bca90471
3b0d2bcd
bd1e1e2e
bcbe8577
3cf1b8aa
bbb53ae0
b9a84feb
bd0cc9a7
bd191687
3bbbd960
3c279357
bd12f5dc
3d0093d9
3d0f26af
3c44827b
bd18eb89
3c954a80
3d0486ad
3cb9c305
bad4ed2d
bc4c6c55
bce4bec6
bd182dbe
bce8661b
3cb57e67
3b9c3124
3adaea9d
bc7ed634
bb5c74e0
3c00fad2
3bdb38a0
bcd4eb14
3cd759ef
3bc03bc5
3d090710
bcede11a
bd18dac2
3bb6b45d
3ca07d4e
3cd60631
3caedfe7
bcfdb6e5
3d1a682b
3cbcc07b
3bb2e59b
3d103537
bc90a351
3d09e55c
bb865f2a
3ca48733
bd2bb129
3ae5d257
3b797679
bcdda6a4
bc4f398f
bc8e7579
bcdda05a
bc879a28
3cbdad75
bd2f37fc
3c46a7f0
bd287d2c
bb5461ed
ba28e6ea
3c68bc17
3cdb877b
bd306b38
3c2cd5b7
bbf1e662
3ca9c993
bbf29407
bc99da9d
ba871533
bc890f73
3cfbd8be
3c95097d
bc3c2763
bcfab325
3cc8626f
bcb4c7f3
3cb838c1
bcab5e53
3c83382e
bc68e608
bc8eac00
bd245804
bc468230
3d07fdc6
3bd0f2cc
bd0ba83f
bc98bf7f
bd12d01c
bc2c81d4
3b471e37
bc8d2807
3b794ada
ba0338af
bc8b9fdc
3d02f2fa
3c8f062d
3cbe5109
3cafc47e
3ce13b19
bcf6965f
3c2e89ec
3ca6e760
bcfd6d7f
bc429bf1
badfd18c
3d1f9160
3d027fa2
3d293e1d
3b3bf1b3
3ae9acd7
b9dd3525
3d166cf4
bc81a7a0
bce87f45
bbaae6c9
3ce6b617
3c983516
3d209785
bcdf676f
3caad1d0
3cdc0fcb
3d07fcb9
bc66362a
bcc00b89
bcd3910c
3d175297
3b0d55be
3d374aba
bcefe2e7
bd069942
bb7f3931
3b9e4d5e
3cfdb6e5
3a796f6d
bc7f4ba5
3d055326
bc0370ce
bcb25700
3b638f87
bbc9d170
3c12ef5b
3c13305e
bcb8da3c
bc9c3efb
3bcb75b5
b85b4c97
bce31b58
3b68279c
3cb36dec
bcc66905
3d08c2e7
3c00c019
3a6ba022
bc320b80
3bbc283a
3ce481f5
bc253b8e
3c323140
3d08882f
3bf8487c
bd229c78
bbb3bb84
3c94bbe4
3cc9c2c2
3c875b3e
3c9f2991
3b7a9a65
3c168796
3c0eb5a5
3b632fe6
bc70025c
3a109d47
bd0c49ba
3c65f740
bd07820a
bce8e608
3c2000bc
bc0816ba
3d1f84cb
bd09d27c
bc6ed45f
b90e907c
3d0ec311
bb105b2c
bb87e613
3ccd7f0f
bc613b19
bcf8ab0d
bc782b1f
bc1c8bbc
bcd8d79d
3d0efbb1
3d0d130e
3c28fc0d
3d1e2479
bd1a0cf2
bb9a6571
3ba59a59
bca0be51
3c949625
bce25205
bcc21e1d
3ce455eb
3ccf6167
bbb81733
3d0def41
3c99bf59
3bd69aac
3d144242
bc83686a
bcd3dea4
3ccc4ac7
bd349060
bbc050be
3cb24a6b
bcc0e38a
3cb8c975
bd1c182f
bc3cf4e8
3c0ead42
bb93433e
bca8ae75
bce1f5be
bb1230f0
3cc13123
3cf893fb
3cba1b19
bd20c283
3c7f822c
3d249a13
bd1564b6
bc020f39
3d01de27
bcdb76b4
bd12b6f2
bcd54da5
bbd55029
bc0a69e6
3b888a7e
3ced4c34
3d1bb279
bca83f4f
3d122a6f
3ceadf72
bd2cbb80
bc670c13
b998ff6b
3cf42785
3d11e53b
3bfb9e71
3c805a2d
bccb6849
bcf9df55
3c205d02
bbe9f425
3d0d1527
bbcc8b5e
3c79053a
bccb9021
3b982378
3c7db8fe
3d05681f
bd0299d9
bca5119d
3c972ef1
3caf89c6
3cabb44e
bca53544
bd048f11
3d2d31fd
bd2b5b2d
bc60589b
bd2fbf40
3d1ef73c
bc194e86
3c6707e1
bb86e059
babb7c42
3bb56ee2
bd2a2f49
3c28d64d
bcd50ebb
bd1933e3
bcad18d2
bd1e4a38
baff3fe7
bcee7c4a
bbdd3bb0
bd1650a4
3cee9574
3d07c632
3d1b0037
bd160fa1
3d1c1c61
3ca76102
bcb49386
3c258b3f
3a511155
bd2bb235
bcea465a
3c63582a
bd0e7ab7
bc747736
3c6b0319
3c5e614a
3bc7b1db
bd199fe4
3cfaca36
3bf27bb3
bc3dad75
bd155821
bc1d73ae
3c3badc1
bcbca750
3ba59db4
3d0c2d6b
3d011b1e
3ae300ec
bd0100e7
bd0a9260
3c5ffc54
bccca0c3
3cb484d7
bcb645a2
bd04d984
3d1ea78b
3c44f7ec
bcc167a9
3ca9a3d3
bd0065b6
3cfb5d03
3c9dfdac
bd1cf13d
bcebf65e
3bcd88b4
3cfa311f
bcd2d880
ba716e98
3ae0e80d
3cfe7e20
3ca98677
bb49ea9a
3bab705c
3c7398e9
3c01bd04
3cf49279
3ca09891
3c987c63
3d0e410b
3d2501e2
3bdfbd6a
bd1faca3
bc930596
bc0c9321
bc85d745
bcf0c565
3cc67dfe
bcbfaf42
3d179182
bc119a5c
bccac083
3c537c13
bd05de9c
bcaf8df8
bcf13ad6
bcbbfb59
bc640421
bcb5158c
bd03f91e
3c4dd93c
3cb8f57f
3d19be4d
3ca745bf
bc0caa9e
bc9f59cd
3c73300e
3b8b545c
3cde6794
bce11772
bcc4e725
bba241df
3c8b73d2
3cce160e
bd14ff00
3c88722a
3cd9ab6d
3d047a18
3ccd50ec
3d06fef8
3d231f8a
3ce4f334
3b1b82a8
3b143c63
3cc9b62c
3c37b289
bcd16b98
bbcdb7ae
bd0b9baa
3c9d1d47
bd013123
3ce084a5
bd2c4d66
bbd69248
bcecf206
3b98145e
3d24473d
bc5acabc
bd2939eb
bca79357
bd1beb18
3cbb3e9a
3ce3ef28
3c9845dd
3d14bad8
3a62277d
3ce82518
3bae1049
bd198288
3ccc5b8e
3c48d9f9
3c6f3908
3d00ee07
3c1d3be6
3c95af29
bc99a848
bce7924b
bcd6a9c5
3c4e8102
bd08aefb
bc3cf4e8
bc0a4492
bbe47637
bd14e8fb
3d25d181
bc602ea9
bceffe2a
3cd0b956
bc60828c
bc16af04
3cb7c350
bcd0b73d
bccbe404
bd1ae70c
bd1b7ae5
3b2e6c8f
bc76ad71
3c4a8199
bd1460aa
bd06fdeb
3c3c1ace
3c6bcc6c
3d0aba38
3b57060c
bce28672
bd159c49
3c8157ef
3bc98e54
bd1dda06
bd0d4dc6
3ca6fa40
bbe590e9
bca44a62
bd24a59c
3b1e1600
3cec93a7
bcecc3e3
3c886163
3ce01de2
bcacbc8c
3c45f395
3d05e80c
3c2e642c
bb04b42f
3c86ca8a
3c8ee06e
3cebe7b0
3d0915be
bb3b8eb7
3c53a605
bc6260b3
bce1e0c6
3cc07033
3d25a46a
bd299d88
3c469b5a
bcc0485a
3cee9bbf
bcb2f017
3d2146a2
3d33e037
bb370ac4
3c566278
bd1718ec
bcf08cc5
bd229f9d
bcb55ef2
3b5ac761
bd1e3327
b98d40f1
bca367e4
3be91ae1
3c886bdf
3c55347a
bd093faf
bb4ef16a
bca265f1
3be604ac
3c5ac68b
3d3252ce
bc070d3a
bd1e99e9
bcfecbb8
bd00bdcb
3ca89dae
bd228134
bca830a1
bcc200c1
bd0d8666
bd102abb
3d14b59a
3ceea20a
3c3f61aa
3cb078d9
bccc2939
3cc9ff93
3b938a8c
3c97b310
bc978b37
3cd54fbe
3cd4aa11
bbde1fdb
bd12fe3f
bc65f740
3c3ea91e
3ca3b795
3d2b5e53
bc90342b
3c08afd2
3d2237ce
bcba57eb
3cc5bd0e
bc9d66ae
bd06a5d7
3d27be55
bce223e2
bb594de5
bc24723b
3d1e3433
3d144780
bc7b3743
bd0e0978
3c97a249
3b85aacf
bb1c2dc9
3a9c3987
3cade871
bce23290
bc14013f
bd12a737
3c00643e
3c256580
bc604c06
3c1e81cb
3ca830a1
3c3a94bc
bb7d9415
bd09d7ba
bc9947d0
bca1016d
bc97f413
3c35bf6a
3b9f88c7
bafaf351
3c2a1d75
3c28fc0d
3c8b1dd6
bd06d613
3cf0e6f3
3d149518
bc761240
bd2657b8
3c28e714
bd2456f7
baa697af
3cade658
bd04577e
3c90a56a
bcc86cec
3cd460aa
3d131876
3c93c255
bd2759ab
3bc8d84c
bd1d3aa3
bcc7f77b
3c7cd680
3c75e41d
bcb2f87b
bc2c57e2
bc68ff32
3bbb15eb
3c1c69c3
bcd6d19e
3cea8976
3d257109
3c0b79b1
bd13708b
3d0a7935
bc8e6d16
3c13ccd1
3d0bae8a
3c99dece
3d087b9a
3d004428
bc78c21e
3c8bb2bc
bca9eb20
3d084620
3c804535
bd05f06f
3cf86a0a
bbc7e0d5
bb9b68a7
3b9ca18c
bbaeb9bc
3b6da58a
bcf457c1
bcdd3fe2
bcbb14a9
3b01867d
bcc7b246
3c814f8b
3b2dbab9
bc50917d
bcaef2c7
3d1c7475
3bc1318e
3c886df8
3d1ef1fe
3cd73861
3ccaafbc
bd595aaf
3b449195
bba71151
bc5a87a0
3c7f0457
bd004641
3c6846a6
ba2fa2f0
3d1ebd90
baf61d28
3b4bc566
bce28aa4
bc6f9db2
3cd4c76d
bd2d14a1
bcfaeddd
bceabffd
3c010625
bd2602c9
3ca65493
b92e5365
3cddaad6
bd0dc012
bca9fe00
bcd5ae1d
bac4afc8
3d166e01
3cac0831
ba497c8b
bc8303c0
3b892401
3ce95fab
bbdf307d
3d0e2196
3cffb69a
bbc599d3
bc2afbc2
3c951612
3c3862b2
3c8b8280
bd2f5fd4
bc384556
bd012381
ba919b9e
bd303298
3d1fb3fa
3bf20642
bd19dfdb
3c48d196
bd3acf74
3cb76d55
3d272c95
bc25f84d
bb602067
bcbd2fa1
bb9171ad
3d3e4ffd
bbfc5982
3cdb9e8c
bcca87e4
bce17c1c
bd084b5e
bc34d489
bd1934f0
bd004a73
bb861dbc
3aaeb159
3ccba94c
3c9a3d2e
bc88d8ed
b94608b8
b9db2db9
3c7709b7
bc3c664d
bcf0ac3b
3d2a9c56
bd1f85d7
3c10b1ff
bd071a3b
3bdcb726
bd0bec68
3b4cf86c
3ce06d94
bccdc012
bca36c16
3ca1cac1
bcd058de
bc0e2633
bcf71002
bd021af8
bc85db77
b9d021c1
bc062406
3c0eaa52
bc959e62
3c46eb0b
bca8d64d
3cb8fde3
3cc3d89d
bcf48a16
3bf4e443
bd18dac2
3cd9146e
3af31968
3cc1461b
3c49f72f
bc4fb331
3c5b8fde
3b451472
3bea6c1a
3cd4562e
3d2baf10
bd0342ab
3d20bf5d
3b84a79a
3b069256
bc76512b
3d60242d
bb23da65
3c822ff1
bc6b074a
3ce0dcba
3cc3632c
3cdf17be
bccc7b03
3bee2a15
3d263411
bc80ecfa
bcdac040
bb38c75c
3ccba94c
3caf87ad
bad10bf7
3c9bd61f
3c810625
bc9450f0
bce09353
bd2003ac
bd09118c
3cc477ff
baa3004b
3d04fa05
bbdd34fa
bc6f77f2
3c9b7bf2
3c463ae2
bcd9d12d
3bb7b50e
3d10ce4f
3c554973
bcfa4830
3c496cc6
bcc12275
3d15043e
bc64217d
3ca450ad
3d2cb641
bb5f1e08
3c0a1d25
bc93c255
bc8c4dec
bd15de59
3caa8a83
3d1dd6e0
3c96fa83
bcb2e9cd
3d2290ef
3cdad320
3c98e53f
3bd5db69
bd0f52b9
bc88df37
3c82e233
3d1870da
bd1b8455
3c944aa5
3c427a63
bd264f55
bbd55b11
3cc8b220
bc1acde2
bd1bf7ad
3aec3116
3ceb56fc
3d16030c
3cab7996
3d1b1748
bb7ff873
3c57cb2e
3bd6139d
bd16fb8f
3b9d9e0b
bbed5bb9
3cc27c7c
3c96f007
bca40d91
bcfe9d95
bcbb46fe
bce4388f
3c9e7104
bc26a444
bcefc9bc
3c037139
bd2834d2
bd09949f
bd28d75a
bc059e3a
bd07bdcf
3cdea897
bcdd8f93
bcdec80c
3c223839
bd3cddd7
3be8cc07
3c19db73
3c6b7889
3c72becf
3cf88b97
bc877681
3d18a00a
3ce89225
3d1b9a5b
bc8e5604
3a419ff3
bd06f588
3c763800
bc177fe4
bcd7d391
bd17e23f
3be50177
3bc56e34
bc93b3a7
3d0c5da7
baae31d7
3be7ab75
3d0ca81a
bd1e108c
3cc59104
3cb62c77
3c50dcfd
bbedd053
3c304ab6
bcf89e77
bb830787
bc94b9cb
3c91233e
bccd3177
bcf71a7e
3c7583a5
bc4475e6
3cb04ab6
bb4a0f83
bc86e7e6
bbde0356
3cb42246
3c05dd90
3b6f68d9
3ad5b680
3af28269
bce31d71
bcd98e11
3cf9c843
3ca37ac4
3cdeaab0
3c831ceb
3ce14be0
bbecd226
3cc6455f
bd1d7fd8
bcc4f5d3
bc9e2153
3d2731d3
bd0c5da7
3bf0d4ea
3d0a48f9
3d0a6b94
3c823e9f
3cb2a27f
bd045ed5
3cf7e5eb
3d1f266c
bd12d880
bc9f98b7
bceae5bd
bd153dea
bd21cef2
bd13ccd1
3d182a99
3c22daf6
bd1186db
bb1eb562
3c0b417d
bd0a84be
3ba4f293
bcd16db1
bcbdd54e
3cf69446
bcaf61ed
3cf8a8f4
bcea832c
3c5d6e05
bcff5a53
bc98eb89
bd0195cd
bc05c2b8
bc85ccc9
bb284381
bad3ee29
bd12a62b
3d2786c2
bd2df2ed
bc883340
3cf7ced9
3ce06fac
bbfe0a5c
bb37ffb6
bcec764b
3cc1d4b7
bb5794a7
3d086595
bcda469d
bce48840
3c98f1d4
3ce81883
3ba30f64
3d09e55c
bcd0891a
3b9f2fdc
bd03ce21
3cf837b5
bd151c5c
bcee7a31
3bec595a
bd2059a7
3ccc100e
badec1c2
3d0010c7
3c710ecb
bcadc8fc
bc550657
3d21ae71
3c9dc50d
3d2808c8
bc99285b
3c9b38d6
bcd4280b
3ba25453
3b77ae22
bd30574b
3cb5c183
3cab0425
bc23df6e
bb7a5fad
bc1c1b54
bbfb04ee
3a5d6b81
3d01c0ca
3bd34664
3d088a48
3ca0b806
bc58b1dd
bd103d9b
bd15e17e
bb34400e
3c2df2ed
bcf43633
bc6f5a96
3d328b6e
bc5ffc54
3ceaceab
3b96370f
3d1e12a5
3c8daa0d
bb1cab9d
3d57be98
bca832ba
3c2c14c6
bcea593a
bcb2745c
bce23af3
3d02d9cf
bc6c636b
3bac4cfb
bd2019b1
3ccffa7f
bccff866
bb8a0d35
bca31e7e
3bbdf747
3ba71c39
3cf6a93f
3bf0c77e
bb2a0374
3cb7bd06
baa7249d
3c380a9e
3cabdc27
bcdae600
3c04dfce
3cf6b7ed
bb905c03
bd0acc0c
bc1f786b
bcb52008
bd1056c5
bc3b6241
bd046d83
3c029a0e
3ccf2ae0
bd24bdba
3d263737
bc0eb67c
3d1e236c
bc67ab75
bc525edd
bc30d951
3c7b1184
3c8dcdb3
3c8f16f4
bd039ef1
3ce3cfb3
3d0a0d35
bd0bb3c8
3c99934f
bd14d50f
38a10adb
bccedb2f
3bcf7afd
3b3000e4
3cb7e0ac
bcec332f
3d26fc59
bd22b6ae
bd1d0a67
3ca9f384
bc8bed74
3bc91d15
3cf58e22
3cdd65a1
bc8adaba
bcc3393b
3c9ce8d9
bd0eca68
bc160b70
3c90b418
3cb89720
bd08c60d
baeb3f7f
bc3994e2
bca3c643
3c6b13e0
3cb9dc2f
3d1abb02
3c9be8ff
3c85a709
3c75f0b3
bc9513f9
3c0b0f28
bc9697f2
39859ab4
bce44524
3c9b2e5a
3d1c7ef1
bd28dfbd
3d01eabc
3c553cde
38a7d069
3cc9cd3e
bc710ecb
3c81322f
bd2136e7
bd12018a
bd0956c1
bbf312b2
bcc30b18
bc05d455
bd205575
bd22f6a5
3b1a9b21
3ceb15f9
3a57e026
bbddd60a
bd22c775
3cf24313
bc085bef
3ce2b6ae
bce4ae00
bd113943
bbaee709
3cd5629e
3b761d28
3d015098
3b87e10a
3cf01fb8
bb950abf
bd0091c1
b95d555b
badd78ec
3ce15ec0
bd055a7d
bd0b2a6b
bc48b86b
3ab60865
bc90f51b
3b298097
bc5e1199
3d20c9da
bcb573eb
3c2908a2
3b42ae66
3a07ab85
bcc5c572
3ce2d624
3c6108c4
bb6d4af2
bbd15ad1
3d051b93
bd4460ee
3b7d9770
3d0e9920
bc2bfb9c
bc8bf1a6
bc7e260b
bc6dedaf
bc2fa722
bcf544bb
bcb63f57
bc8945fa
bcb10774
bcd32831
3c6b1c43
3d0be729
3c3417ca
3c761ed6
bd11d367
bc7b4c3c
bca21859
3c7eac43
bcaec072
3d17d7c3
3ca5f41b
bca23e18
3d23cfb3
bca92e62
3becf70f
3ccca4f4
bcef6f8f
3cc0c847
3d07fcb9
3d19f2bb
3bef4ed8
bcc16378
3c85729b
3c1ec0b5
bc28f3aa
3d112a95
3cf2d1af
3d19d346
bd00767d
bc93165d
3cac258d
3bb12d34
bd1f0d41
3ca730c6
3c203819
bc843a21
bce05ab4
3cdd9e41
3bcfcd32
3d11697f
bc9478c8
bcbf5515
bac12fe1
bcc93ea3
3ceaa4ba
3c845fe1
bd1220ff
bcba98ee
bbf88ef2
3b585dfb
bd0ae74f
3bee6ede
39d8711b
bc9be09c
bd063bef
bc96030c
3a52b81e
bc1f8c22
3cd8f4f9
bc21fd15
bccc5fc0
bc88051d
3c69ee46
3c5434a0
3bcc36a5
bcb5e95b
bc8cb296
bcabd1ab
bba1ec4e
bcc39bcc
bc5538ac
3d1288ce
bd0d5f9a
3beb4635
bca595bc
3ca7631b
39c08e25
3d1e3b8a
3c7fbce4
3d23582a
3d3b1c00
3d03a754
3cce95fb
bb9a6cfe
3c0edec0
3c29f384
bafc53a3
bb33156c
3cbc7714
bcb85a4f
bb51cb39
bd03d790
bd10b631
3c03ecf5
3c813661
bd1dbec2
3cedd26b
bcdb5958
bd049774
3b8e2fd9
3ca28bb1
3cb1a8ef
bc91600f
bd338b48
3cab90a8
bcb08787
3bade3d3
3cdfaa8b
b9436f00
3c0a3d05
3d30281c
3c98a43c
3ca493c9
3c8e94ee
3ce87097
3cfb6998
bcaf2f98
3c112704
3d00de4c
bd13ac4f
3cef4be8
3b244fd6
3bc3b851
3cf80779
bc07a729
3c6cedd5
bc9101b0
3d0b380d
3ccca926
3c987831
3d016f00
3c139284
3d278290
3c924d0a
bc7dd228
3c9de050
bb89b0ee
bd05b9e9
bd24345d
bc80e065
baaea3ed
3d163993
bc1c76c4
3cbd5561
b6414ce5
3d0a5482
3d0192a7
3bc36f56
3d315d70
3d0b09ea
3cac929b
3d259c06
3c00c3e0
3c9563aa
3cfcbd55
3ca8d64d
bcbaeee9
bd1842b7
3cf4384c
bc365a9b
bc38a5ce
bb14fd53
3d2706d5
bd0f7b9e
3bd084e8
bcf735c2
3d390c91
bcfafa72
bc773c0c
3d332592
3ceb851f
ba8b7ffb
bc99ef95
39ab2cbf
3c9ccd96
bd21858c
3b8ea1ef
3c468a93
bd27ef9e
3ce379b7
bcb42edc
bc71e8e6
3cff9d6f
3be1ee9d
bce95d92
bc2bef07
bd19ac79
bb7b2e09
bc04ce9c
bd1871e7
bbf12069
39d46649
3b754ecc
bc90d5a6
bc0dcef6
bd33a9b0
3c8dcdb3
3ce527a2
3a95a1bd
3c4aafbc
3c94b381
3c529132
3cefc159
3d023b79
3d171c11
3a167725
bc28155d
bcea7696
3cf5ab7e
bcb22af5
bb6514c2
3d1d4952
bc6e2435
3c4afb3b
bc37c782
3a7074f3
3c1c8d6a
3c808206
3d229952
bc4ee17a
3cfa4617
3ccd338f
bd1f9df5
3d196e9c
3c1c3ac9
3bfbbd7b
3ccb5569
bd2dff82
3c0849e6
bbe7d05e
bd0ecb75
bc76d331
bb95fd2d
3cf82d38
3c765dc0
3c8ba1f5
3c90f51b
3d07da1f
3afe301c
bd72b884
3cf7f6b2
3c79a49c
3b9fe0db
bbdd06d7
3ca7b917
bcbd9232
3d230015
bcdd8948
bcf19b4e
3b630caa
3c92ddbe
bd07c526
3b93392d
bc7a93af
3c9539b9
bd186b9c
3ba8bd23
3a50e865
3d05e2ce
bb98b9a0
bc39ecf6
3d150870
3cb59147
bce59f2c
bcac7fbb
3b062dac
3cecb74e
3cf61cbd
3be5cc78
bd151e75
bb0f5218
bd08c932
3a9a092b
3c91dde3
3c77f067
3d044e0e
3b98c3b1
3ccde5d2
bcac6ac2
bcc10518
bb41333c
bc98f81f
bceec9e2
bd0811b2
3d1b21c4
bd24f65a
bbd1d474
bc9fe64f
bca93294
bd185597
bb2b54ad
bc970b4a
bcc855da
bc934699
3b2f7751
3ca38da4
3c9fd157
bd04ab60
3c9057d1
bc98f81f
bc436977
3b7e103c
3cb64bec
3c87df5d
bc80346e
bc4069e8
bc642e12
3c8bfe3b
3cbae686
3d0cc89b
3ae2d8a8
3d1dda06
bc6c4e72
bc75dbba
bb1a77e6
bb7d9267
bd1cd91f
3d29cfdd
3cdc5500
bd225a68
3d193c47
bcd0a676
bcf3b646
bbb9bdfc
bcde8f6d
bd1d55e7
bd27b6fe
3c337868
3cde19fc
3cba0e84
3cabfdb5
3c5a6a44
3d13e3e3
3c8bc16a
b9eee44f
bc5a87a0
3c0bc9cd
3d06c227
3cc36545
3bd3bd82
3a50a8a4
3baf12a8
bc041751
bc97fe8f
3c807fed
bc0834ed
bcf69caa
3c48f323
bd03e426
bb6a1b92
3b8e2344
3c1a4591
bd1a9329
3d055326
3c869403
bd123a2a
3bd111d6
bd0795f6
3ca46e09
bc9098d4
3d072e27
bca21640
bd018d69
3c303e21
3cac6ac2
3cc98e54
bcde2ef5
3d1c91d1
3ca6edab
3ceda661
3c3ef8cf
3ba8a82a
3cdaaf79
3c867275
3c808a69
3d145f9e
3d11f4f5
3ad63cb8
3cf35e31
bbce9b03
bd2d6990
bc5e3327
bc4918e3
bbc6db1b
3c445cbc
3cb369ba
3cf403de
bd00e27e
bcfa786c
bcd1bf7b
3c35aea3
3d05cfee
3b65d5b2
bcc84d77
bd1c2d28
bca176de
bc84662c
3d2074eb
bc1511e0
3c8d4563
bbc679cc
bcdc52e7
bc14b315
bc8958da
3c1ae488
3c8da1a9
bc87b13a
bd258c4c
bd0e4756
bd0523f6
3d1798d9
bb48abd6
bccabe6a
3c847b24
3cffb481
bcbc9cd4
bb75b87e
bc034b0e
bd327dcc
bc3a6efc
3c9e8816
bc19538e
bbc663fd
3ccb5350
3cf4f93c
bce78c00
3d0306e6
3d074ea9
ba9ff279
bd1084e8
3d1e68a1
3ce659d1
3b6ed6e3
bd149f95
3c8eb895
3a799fbf
bbf8cb58
bc60ac7e
3ca32096
3d0999dd
3b495bff
3ab30800
3c03f481
3d1b1855
3d25de16
bc56cf85
3bed2029
3cdb9a5b
bceb6391
3c68b7e5
3d277920
3d1ee45c
3c24ce81
bcdeaab0
3d0508b3
bb3fe70b
bc9ac14c
3d1c7ac0
bc8192a7
3cf8b7a2
ba0982a0
39b2c6e7
bc2a758a
3c85058e
bca5918a
3ceca8a0
3c96787d
bd12aa5c
3b768024
bca424a2
bcf227d0
bcb9042e
3d1553ef
bbce6122
bc9409a2
3c845996
bc480c74
bbe0fb58
bb66ce00
3d234656
bc7e8251
bd129670
3d23ee1c
bc0d279b
3c0f091d
3c37414a
bd237154
bc2c4f7f
bd0840e1
bc68038a
3cb8c112
3c175877
3d0a1dfc
3d1f1f15
bcbbcf4f
bbf17375
bc61650a
bccc857f
3cc55a7d
3cddf655
bcfdc593
bbcb1b1c
3cbc408e
bca9eb20
bcc92ddc
3cb95810
3d15dd4c
3cb01c93
bb7fdd9b
bcd566cf
bc1b8c4e
bc4b6849
bd03dee8
3cbb7308
3cfbdcf0
bd25b318
bcb20b80
3cd0efdd
bd047c31
bcaed56b
3d0bdcad
bc94a904
3c96a8b9
3c040f59
bd2cfd8f
3cf3d9ec
3c9e5c0c
3ca9131f
bb168c9f
3c99fa12
3d2d7d7c
3c93a4f8
3a544567
3b961d0d
3b1f998e
3d177532
bd0692f7
3c0b23b5
3af46c4e
3c981beb
3cf4ff86
3c468a93
3c0859d6
3b8be9ae
bbacc195
3cb79fa9
bc857aff
3c5ea466
3c8472c1
bcd9d990
bc215e8a
bd0ac5c1
bc8f648c
bc4df698
bcd73216
3caf294e
3b804f46
bbcd06ae
bb8a3070
bc468a93
3d2322af
bbf5be5e
3d0a1dfc
3c763800
bbedef5c
bccc100e
3c3c382a
bd0ef34d
3cf2ffd2
bc357c4e
bc806af4
3ccc89b1
bca3f898
3c83f706
3c64fb98
3c343d8a
bb332ce9
3b2db255
bc8d38ce
3d0983d8
3d153ef7
3cce4c94
bce8a2ec
bcf8d0cc
3cc866a1
3c6603d5
bd224dd3
3c755150
3a84f8f9
3d248d7e
3cfa80d0
bc2f6406
3d07f994
3ccddf87
3ce6b1e6
3cdac040
bc949c6f
bc13fde4
3ba68bf0
3c5edaec
3cc067cf
bd28a1e0
3c38c32b
3c439bcc
bb0fe5bc
3c3b3c82
38adff1b
bc5ed289
3ce50614
bcdf43c8
3c373083
3c8f8c65
3cb4acb0
bcc0bdcb
bd0c8ffc
bccb252d
bc8fa9c1
ba2a2c64
3d1d25ab
bab281c8
bc79b563
bacc433a
3c0d6a4c
bce29739
3adb41db
bd168944
bd44577e
3cce7cd0
bcef416c
3d1bb59e
bc124512
bc9ec700
bb894665
bcbd87b5
3ccb8bf0
3c3aecd0
3d17353b
bc28826b
bc369db6
bc8a04d1
bc69d51b
3bfe6d59
398884f4
3bd8c452
3b983871
bd1d9f4d
3c73e89b
3cd629d8
3cce160e
3c8f51ad
bcd92d99
bcb6b096
3cb11c6d
bc526b72
3d24ae00
3c0d603b
3b8e8b49
3d410300
bafed487
bcab0425
3cd104d5
3b83c94e
bcb7d417
3c0228cf
3cb6ac64
bd11ed9e
bd0a6656
bcab495a
bd04dfce
bc2ca793
bcc1f645
bd162e0a
bd0de3b9
3c9fc8f3
bc3380cb
ba83c445
bcbb55ac
3b560708
bb8bdf9d
3ce6a338
bd25614e
bc4a1cef
3d509f1f
3c85d52c
bd0153bd
bcfa3550
bc84f6e0
bc5f86e4
3b08ace2
bce51090
3c775d9a
bcc11a11
bc22be06
3c58adac
bad4e677
bb943908
bbe1b816
bcb7ef5b
3ac23fab
3c8cbf2b
bd150332
bc070e7d
bc63eaf7
bcd49b63
3c9e83e4
3cc386d3
bc198791
3cecfe9b
bcccab3f
bcbe5109
bbd6e986
bd00a7c6
3c959e62
bb8596ad
bcde2047
3c676428
bd3bb731
3ad9ffbb
bce99e95
bccf3fd9
3c929cbb
bb47508c
bd3ec786
3d156d1a
3bb84f67
3cb1ceaf
3beb0aa5
3d0d60a6
3c941e9b
3d008e9b
bcb393ab
3c43efae
3c00976a
3c04ca6a
3cca2553
3b343958
bc3734b5
3d068555
bd231833
bbf29eee
bcec3dab
bc587725
bd484a51
3b3109f9
bcfe3b04
3d15421c
bac971ce
bc8da5db
3c622a2c
3ca0ee8d
3c98bf7f
bd1ec5f4
3cb47e8d
bbe78408
bcb456b4
bcd3d20f
3c5efc7a
3d23db3c
bcf06f69
3ca47a9e
bd133094
bc7d7a14
3cbb5393
bc669f06
3a194287
bca749f1
bac5619f
bcf98fa3
3cab302f
3c9d7dbf
bd0e8c8b
bd12567a
3d2becee
bcfca212
bcc664d4
bc28ac5c
bbb82576
3d2646f1
bc544567
bbdac5b4
bd2bd2b7
bb43979a
bd039abf
bc78e3ac
3c34b72c
bd0a3401
bc53f5b6
bc76f08d
bc67296f
3be5be35
bca3b9ae
3cfaf428
3cd04817
3cdbb16c
3d21e0c6
bb8e1fe9
3bf12217
bba88fd7
3cc8dc12
bd021f2a
bc98d8a9
bbd48a30
3bc34712
bbdf6988
bd202fb6
3c5eb52d
bb73c12d
3b68477d
bd2a79bc
bc978d50
bd369121
3b1d840a
3b9fa1f1
3cb8d60a
3b80e99f
bcaf0e0b
bb954dda
3cd5171e
3cbd89ce
3c14ff6c
3d03b0c4
bc8f062d
bc7fc979
3c83dddb
bc226d12
3bfe1bfa
3cb62e90
3bd5c091
bc5d54da
bd0c1db0
3c91cf35
3cff1d82
bc0069b2
3cbf7058
3bd4562e
bccb1898
bcf8ee28
bc15a731
bc126fda
bbf42353
3cc8b652
bd1a2c67
3a580463
3ce3b470
3c835159
bd21719f
3b94bcbb
bd03aa7a
3cd18f3f
3d1b413a
ba344b77
bcbdf6dc
3cc5f9df
3b93fca2
3c9c7ffe
3aad2f79
3c930165
bc4c1440
bcbda512
3c4dd0d9
bcee04c0
3c811d36
3cd7ff9b
bd05e5f3
bd09f623
3c6d2cbf
bd0bfd2f
bb8ee286
bba25885
3b989b6d
3c0312da
3d0f2ae0
3cf5903a
3d176ddb
3cfe49b2
3bbabdd7
bd1a74c1
bd0010c7
bc4486ad
bce9fcf4
3ca56bca
bd12fa0d
bcea6e33
bd0c9d9d
ba8b6523
3c3645a2
3c48472c
bd0660a2
bd03e63f
3cc199fe
bb97e05c
bd0eac00
3985751f
3d039ffd
bc9971c1
3d20ae97
3cb52c9d
3d26f0d0
3d305858
bc6f4e01
bcc6fdeb
bbc0fbde
3c944aa5
3a90cb95
3bbab721
3a48c6ae
bbfb605e
3c9424e6
bd000432
3cf52b91
bd0cd0ff
3cea1837
ba85ea90
3cac3c9f
3d1bdd76
bc80346e
3b303d4a
3d0576cd
3cfd8cf4
bcbcad9b
3bca9c71
3d0c5975
bcb1d713
bbcf2b4c
bc41615f
3c4814d7
3d12ee85
3ce98783
3a8ffee6
bcd379fb
3c5bc233
3cabd3c3
bcdfdef8
3c4929aa
bca43782
bc52cbea
3c3356da
3ae88235
bd194f27
3ca02321
3c32cc71
bbbc1c7b
3c46c54c
3cec332f
bc422ee4
bbdcaec2
bba29846
3c4a70d2
bca56bca
3c4579f2
bc867cf2
3cb46dc6
3bd4cd4c
3c482e02
bc57ba67
bd21975f
3cc13123
bbe0b913
bc8cd20b
bcbfad2a
bce2d83c
3c3ffcdb
bceb56fc
bb6df7c0
3bc3306c
3c143ab5
3cc621b8
3cde15ca
3c984e40
bc7ae361
3c5712a1
3c97ca21
3cf6ee74
bc59f4d3
bc9e59f3
3ce260b3
bd128e0d
bc8b08dd
3ce9f8c2
bc9b3aef
bcfc2ca1
3d017fc7
bb1aabe8
bce7924b
3c3ca969
3cec0725
bc5efc7a
3a84af27
bceb6178
3d202539
3d3a0b5f
bb545ce4
bbe91a0a
bd01f42c
bcee978d
bc11d43e
bd110c2c
3ccd7492
3cc666ed
3d347629
bc9d7ba6
bc8a17b1
bc4319c6
bc3b6241
bcc9ecb3
3c111dca
3cd466f5
3cd53ac5
3c3db1a7
bd2c97d9
3c90adcd
3bb5f011
3d3a2270
bc42f406
bd1ba2be
bcb354c1
bbbf99de
3c29b49a
3c9e16d7
bc22ccb4
bcff4ba5
3ce7839d
3c609353
bd1cd1c8
385ce7d6
3c2bde40
bb2f2d80
bcd360d0
3d020d56
bc1057d1
bce9d734
3baa425e
3b5c5f11
3b9a671f
bcdbea0c
bcc4da90
bd24ef03
bcd9b802
bd25e679
3c6b7458
bc1f728c
bcd4ef46
3cb677f7
3c5ddb12
3c984c27
bc250939
bbace09e
3d1ba1b2
bd0b5cc0
bc94727e
bd0ee286
3c3152f4
bd077250
3c838195
3c337c9a
3ad91b90
bc8b8067
3d13048a
3cce7ee9
3d035bd5
3d25d7cb
3d00229a
3cb36bd3
bb1a5658
3c92dfd7
bc9c9f73
bcecb103
3c93b9f1
3c62de87
3c1e873f
bb6abca2
bbdd250a
ba7792f4
bcea4ca5
39af14ab
bcda836f
3cced2cc
bc683a11
3cddd2af
bb95c6a6
bc271de7
3caa4980
3c9aa3f0
bc0cf9e4
3cda708f
bccee7c5
bd38ed1c
bcb1055c
bcaaf145
3d15f139
bc15b06b
bc964a5a
bcd7d178
3cd4280b
3cef2410
bc297e13
3d1695d9
bd139970
bc0d7b7e
3c9b0ab3
3c9b1fac
bc5dd6e0
3d09d389
3cc7d1bb
3c90c0ad
bc96fc9c
3d2f5558
bcc7a5b1
3ca7a850
3ccf6599
bcb36588
3cbcea6c
3ce42396
3d12135e
3d0e38a8
3bdd1519
3bbd1e03
3cbfc009
bcd96207
3ca21427
bc166821
3d1d4413
bcc1700d
3d26106b
bcf40c41
3cd18d26
bc77caa7
3c9185cf
bd15219b
3c3fbdf1
3d2237ce
3b8d45ce
3bf8388b
3ce310dc
3c5bd2fa
bcffd827
bc282a56
3cf2dc2b
bbf7bb8e
bc9d7ba6
bc5fd263
3d31550d
3c035372
bc3edb73
bc02a561
bca62ed3
bd234763
bd0a2014
bb39fa62
3d0fe692
bca131a9
3c44c597
3c2e89ec
3bff2793
bc853198
bd06ae3a
bc9f9485
3a7e7f4c
3c9d755c
3d05baf5
bc8e9d52
3c4e0b91
bba6a012
3d160fa1
bd1859c9
3c7b6135
3cf572de
bc5bcec8
3cf7b5af
bd0039ac
3c550657
3c18dac2
3d1ccc8a
bcacf0fa
bd1aee63
3c5a0dfe
3ca60b2d
bc8f66a5
3d272757
3c18d11d
3bc25d07
bcfbce42
3c0cfbfc
3d00ee07
bc434c1b
bd0052d6
399ed543
3d1c0768
bd13be23
bc0ffd39
bca17d28
bce99c7c
bd1c8c93
3cbb3c82
3c25614e
bc8b0f28
bca34656
3b8392c7
3c4e208a
bca2af57
bd230fd0
3d365ecc
bc9e3865
3cc814d7
bcc7368b
3a9b3073
bd2b9e49
bd2d0f62
3ac25072
3cb8609a
bcfb224b
bccb167f
bc967ec8
bc854691
bd227d03
3d043e53
bd00474e
3bbf6937
bc315f89
bc0aa865
bd08ede5
bbd92825
3c935547
bcf3e469
ba8a80f8
3c3cdff0
3d0b33db
bd29ac36
3cf4afd5
bcc0fece
3c297e13
bce0d888
3d00357a
bca122fb
3c2b430f
3c46088d
bce631f9
3c8f5e42
3c90b1ff
bbe52f9a
bd1f5382
3b3d80ff
3cd76252
bd10928a
3c4aafbc
bd03a10a
3c8a41a2
bd0d5305
bd22ee42
bcaba5a0
3c0733d1
3cdd4413
3c8ae74f
bc531fcd
bd01d085
3c35d031
3d2b0d95
3c6a033e
bc6481f5
bcf8811b
bc7444e1
bbfb0341
3c951e75
bbb203f4
bcd4bf0a
3c36d00b
3b234d78
bcae31d7
bd13f078
3b6bdd33
bcceb13e
3cc1e365
3d43ff69
3c3ae46d
3cb8609a
bc12f754
bc9550ca
bca8ef78
3b716f44
3d0f8833
bd249c2c
3d246280
bc694680
3d0fc505
bbf0efc2
3d1cbee8
3c1c9d5a
3ca3fee3
bd042529
bbf85f22
3ce5796c
bcf1bef5
3c4ac8e7
bcad3a60
bc4ff64d
bcf6d549
3c9f7729
3b21cb97
3c2e924f
bd352221
3b3cd5df
bc194d43
bceec398
bd2df3f9
3b2582dc
3c84901d
bc2ab474
bbfcc0b0
3c734d6a
bbe47489
bae48cdd
3cc2d278
bcc5308c
3d0c2f83
3baf11d1
3c34202e
3c77121b
bc6707e1
3c9743e9
3bf1a6a1
3cc36977
bd23dc48
bcfdfc1a
bd2ba8c6
bc525aab
3b6113ac
bc94f484
3b89316d
3bb69a5b
3d2822ff
3c4e5b42
bbb5228c
3cf0b285
39dcbc59
bcc14834
3c86b378
bca3bbc7
bc8e38a8
3d1adea9
bd2b3248
bc98d25f
bb8012e0
bcca9692
bca13e3e
3cf3eee5
3cadafd1
3c86a099
bccbd33d
3c366b61
bc571f36
bc344e51
bd104b3c
3bc6f298
bbfd5886
3cd2b90a
3a767e77
3cd3cff6
bcb6e2eb
bba06997
bafb39c8
3cd4a7f8
3c8856e7
3ccc985f
3d183947
3d14a2ba
3c6a704c
3c343958
3cbd3c36
bcfd45a6
3cd51f82
bd247560
3cef8ad2
3cab734b
3c29a805
3d2c4a41
bd2581cf
3c8e38a8
3d1fc4c1
3c943394
bc1c99ff
bc27daa5
bca32b13
3bf32b05
3c973d9f
bba479c7
bd3d76ee
bccc5111
3cbbff8b
3d108e58
3ba09389
3ca4edf6
bbbf4880
3d036220
3d184f4c
bd183f92
bc8a5050
bbc24306
bd0a16a5
bcdc3dee
bb3d71e6
b9ed79eb
3ca30db7
3a869fc2
3d007571
bcfdc9c5
3ca6aca8
bd0e39b4
bc58904f
3cc51117
3c301861
3cb66f93
bceed677
bb90c9e7
bc03b9c9
bcee264e
bb6e3c89
3d278e19
3cbb6673
3c64d1a6
bc22b5a2
3ca630ec
bcbb18db
bca80f13
bc81a7a0
bc145522
3c220579
3c36390d
3cfb395c
bd0d4bad
bd2b65aa
3d0ee5ac
bc73300e
3c192642
3c14544b
bd349f0e
bc23161a
bd14562e
ba3fd99f
bd10b418
bc8576cd
3c9871e7
bc7a0514
3ccee7c5
bd1e6ff8
3c284381
3cef73c1
bd108f65
3c91c6d2
3cb393ab
bcdaee63
bc5fbd6a
3d16de33
3cf87f02
3c1d2250
3cb08bb9
bb38e8ea
bd146b27
3c7a97e1
3c97a67a
bcdde9c0
bbae8fcb
bd19a1fd
3c59d777
3ceb9a17
bc07c55c
3cb81301
bbac3223
bd090d5a
3c6cfe9b
ba8c3888
3cf8f041
bd0bac71
bcad81ae
bc252264
3c1bf310
bae47205
3cfa95c8
bd23022e
bc9081c3
bd177ea2
bd206a6e
3c0c5650
bc8ef135
bc0eced0
3d25fa66
3d14c22f
bd2e935c
bc7fda40
3d06705d
3b80501c
bd1692b4
bc14573a
bd2d3b6d
bd386d2f
bcbbd599
bd34a44c
bd0b5aa7
3b372749
3d0a41a2
bc535654
3ccd1a65
3c53d85a
3ac33143
bd209678
3d0efdca
bca48b65
bb570967
bd23eaf7
3ccf15e8
3c8e29fa
bc86fef8
3d069b5a
bc3280f1
3cb72607
3cbc579f
bc01b8d2
3b8ba9ed
bcd5a188
bcaffb05
3c228d5e
bb633ba4
bd187d70
bbfb8bfd
3d17279a
bc2264af
bbc02371
bcb2aae3
bc9b024f
3d084513
bbea96e2
3c33dd12
3bce34ac
bd1c0db2
3ae6ce00
3d086bdf
3b13b986
bca324c8
bc3edfa4
3d1ab4b7
3bc2a95d
3cc065b6
bccea8da
bbb99ac1
bc4f2496
3c124c33
3be3f78c
bd0d9b5f
bba56225
bd08a266
3c969e3d
3c736ac6
bc504e62
bcaa2e3c
3cc9e237
bd04ee7c
3c0ca7ae
3cd46f58
bd30a1be
3ccdbbe0
3d0e4c94
bc762b6b
3af1f220
bc9ed17c
3c0f8402
bc51d8a5
bc606530
3c9103c9
bcbc621b
bcca2121
bc68ea3a
3c7c3b4f
3c495bff
b873be5c
3ccb4070
bccda2b6
bcc853c1
3cca8199
3c1b5922
bcbf1e8e
bd151d69
3c846c76
bb873a1c
bd0ceb35
bb435b34
bb1dcf89
3a70a748
bce2da55
bb05985b
bce77d52
3d20e411
3c696c40
3c806078
bc94bdfd
bd38c543
3cf7403e
3bfa8f7e
3cbbaba8
bc8064aa
bbb88fff
3a753e5b
3a9bf9c6
3c212af3
bccc6c55
bbafc7d9
3cfe8251
3d04f7ec
3d02e233
bc96dd27
bb8dfe5b
bd070974
3d19f905
3c25df22
3c32b778
bcacabc5
3bcf94fe
baa09389
3d2088d7
bcbb6673
3b3ae544
bca0407d
3cde00d2
bb8887f9
bceac647
bd16ebd5
bd2351df
3d0a03c5
bcfa7c9e
3c89ca19
bc1917ff
3d12ff4c
bbbf3a3d
3d15ac04
bd15a188
3c463ae2
3c60114d
3bd6afa5
3ce7a312
ba628f82
3d0eb789
3d19e1f4
3b010c04
bcc70eb2
bd083772
bcf67d35
3c7c9ff9
3c6a7ce1
3cfbf1e9
badab4ed
3c5909f2
bc53ae68
3d04cad5
bcb64e05
3b0e241b
bcd1d68c
bcf7c88e
3c91ea79
bbbffa56
3c1bdb28
bd1248d8
bc6a2d30
bd164628
bc747304
3aba94bc
3c3c1ace
bd20e304
3d1bff04
3d1fa97e
bcd09e13
3c26f3f5
3bd96a6a
bb0a53ab
3be5936d
3c77fcfc
bd007ee1
bd0d7492
bd19f1ae
3d200c0f
3cb89d6b
3cdabc0e
bcaa62aa
3d1d249e
3ceca46e
3d1130e0
3d263d81
3b4e307a
bc5694cd
bc088433
3c6d02cd
3b8a43bb
bcdd701e
3d071609
bca3ab00
bc87a4a5
3cc31bdf
3bef5d1b
bd04ee7c
bc719935
bcce7ee9
394c2304
bd039bcc
bd02a455
3c7c8b00
3ad7b12c
3d2495e1
bd08e9b4
3c550225
3cc213a1
3cb68f08
3d09c1b5
3c41fc8f
3baf907c
bcc8fda0
bd285447
bcd475a3
3bc5791b
3cb65cb3
bcecd4aa
3d1d755c
3d2f3b21
ba5b9bc8
3c20ab71
3d194185
bc91dde3
3cf55369
3b9505b6
bc8c4589
bba9534b
bca02b84
3b5a3f7c
3c1f8063
bb623290
bc7f8a8f
bb96d59a
3d167664
bcd188f4
3d0d7386
bca5375d
bc898f60
bcb72c52
bd0a265f
3a36bc3f
3b0eef1c
3cc88e7a
3d162bf1
b9b3df6b
3d094f6a
ba63247d
3ce77920
3c7cb924
bc9a1555
3d1a2a4e
bc3fd2e9
bd27f2c3
bccd22c9
bc8f4d7b
3d19e0e7
3d0297c0
3cc39ffd
3b18e53f
bce6ff7e
3ceef3d4
3c9a5ca3
bc1c6160
3c5e19fc
bc95896a
3cfddca5
3d08e044
3cab9b24
3c5c011d
bc02a2dd
bbd31c72
3c1f0366
bd077dd8
3c6dbf8c
3aea6564
bbcd5305
3c8867ae
bbe74a27
b62ac22d
3cddc832
bd3317f0
3c2fab54
bb5faca3
bcc204f3
3c7a3337
bc98bb4d
3d1efb6e
3d1fadb0
3caad602
bd0a3726
bc9d5e4a
bce16b55
bcba98ee
bc8943e1
bd18958e
bc67296f
bd0fbdad
3d083340
bcabba99
baeb5db2
3d1bad3a
3d105f29
3c540ee0
3ce52370
3d22be06
3caa53fc
3c5273d6
bcdd93c4
3d096894
bd098c3b
bd23150e
bd0d9e84
ba4352d1
3c4d8559
3c8fb43e
bcf1d81f
3c4aa759
3be73025
3b9d9d34
bcf1971c
3cf42dcf
3c496cc6
3b897636
bcae1cde
3c3bb1f2
bceb313c
bbfc470e
bd078423
3d44241c
bce234a8
3957bbe9
3c8489d2
3cb20104
3cb5d67c
bc314ec2
3c0f59a5
3b0eef1c
3c91c2a0
bd230b9e
3b257f81
bc82f512
3d11526e
bc734d6a
3c3ebe16
bc817fc7
3c1769a9
bae0114d
3d0815e4
bbca0a7b
bbae13a4
3bd4a1ad
3cf78573
3b924c9e
3c2008b4
3cc8b439
3b5720e4
3cbe8790
bbdf92a2
3c8bd231
ba5ce5f5
3d26b93d
bc9ed5ae
3b2a5ab2
3c7cc5b9
bc8917d7
3c10aea4
bd0b34e7
bd22d0e5
3cb7585c
badd6826
bcd54541
3d1ee350
bcabc2fc
bd04be40
bab64826
3bbd8cbe
bc9fb613
3d19c8c9
3b8ae170
bc1925d6
3c5466f5
bb39aee3
bb181535
bcb8c75c
b86207f2
3c111ea1
3ae9d51b
bc18a223
bc7c08fa
3b5783e0
ba18d11d
bd1ad85e
bd1f548f
bcecaeea
3c3b9064
3cac3223
bc1e7968
bd3abead
bb88e5ed
3ccec205
3b531c72
3d1fdbd3
bb5f47fa
3d1439de
3cf69ec3
bd0d8fd6
3c4471b4
bbf7ff80
3c58b1dd
3c2eab7a
bd1cca71
3cc0d90e
3c4914b1
3d1fd36f
3be1a826
3cb78cca
3c45cdd5
3ad3359d
3b3f0132
3cdc67e0
bcfff9b5
3c8635a4
bb2562fb
bc44a409
bd214ad3
bcdbf6a1
3ca5918a
bc446d83
3d0e9707
3c26655a
bcb0ad47
3c945d85
bd0be942
bcd12ec7
3d0f398f
bb16985d
baf9e386
bbcfede9
3d28198f
3b5c5f11
bd05564b
bc8257c9
3cf68167
bba6e90d
3b3243b5
bba7d821
3d1d81f1
3d132d6f
3ce70c13
bc018612
bcdac472
3d14488c
3cd8c08b
bb23ee87
3aedc3bd
3d168e82
bbf1af04
bd1f56a8
bc57f51f
3d158538
bcfb2032
bd260b2d
3cd3b29a
bc5bca97
3c8168b6
bc90c910
bd238002
3c21bdc0
38e68a38
bd32fdb9
3cd742dd
bce8b7e5
3cb404ea
bc9f687b
395242ad
3badb255
3d2f9874
bd12b3cc
bc8a6117
bd3497b7
bcb78466
bcd77fae
bbf91b09
bacf0df0
bce0157f
3b6ac6b3
bb7cc5b9
3bbc5734
3c9d0204
bcb4f1e5
3ca2e7f7
3caa8006
bbd272ff
bbdd01ce
3c8e0a85
bcb3d295
3c945522
bc8ee8d1
bcc52828
bd1528f2
3d0f7a92
3cea7ce1
3b0591a5
bc960525
bca6c7eb
3c083192
bd09eba7
3b961078
bd3b9cfa
3c4f2cf9
3d043f60
3ce1f3a5
bcae87d3
3d35989e
3cb11e86
bd3839ce
3c8fcd68
3cfaf640
bbf795ce
3c092619
3c02e4b7
bc4c0379
baecdf92
bd29973e
3c93404f
bc98c9fb
3cb2d906
bceb1a2a
bc08c02e
3c9d798e
bd183947
3cabb44e
3d15f139
bccd6e48
3d1eb745
bc0a7b84
bc4c6c55
bb5cb146
ba7543b9
bcd564b6
3d19d452
bbd981e7
bc84e1e7
3b078092
bd2468cb
3cf1fddf
3d39bbae
3b9aead2
bcbbea92
bc8196d9
bcc28f5c
3c5c1a48
3cb3a68b
bd1095af
3c99eb64
bd26351e
bd1a1123
bc8de4c5
3c133c88
bb8f1b91
390e3ff4
bd0110a1
bd272431
3cafb3b7
3cdf9bdc
bcee43aa
bd1569f5
bc1058a8
3be368f1
bcb51bd6
3cb1fab9
bd34341a
3cf5cf25
bca6fe72
bce84274
bb80d3d0
bc0c34c2
bbd40322
3bf3a14d
3c8ced4e
bd095076
3cf42fe8
3bc50126
bc8283d3
ba4e89bb
bc0ee64d
bcb9e493
bbc55ff1
bd08feac
3cf7079e
bd167ec8
3cfd06bc
3cc50efe
3c97f62b
3d3606b8
ba0e561a
bbaf2d80
3b4cc7c4
3ce9a6f8
3b976bc2
bb6e73e7
bb2431a3
bcae9468
3d0cff22
bbcfc5a6
3c618266
bca009f6
bcbbdbe4
3cae2fbe
bcbc89f4
3cf16f44
3cc51fc5
3bad5cc5
bc227f87
3c78ec10
bc91b3f2
bd23cb81
bcb30b5b
3c1d81f1
3cb1ab08
3c93404f
bcad8a11
bc0b8a0c
3d105f29
3b9a7130
3d0d0bb7
3d021c04
3ced45e9
39d3a254
bcd1ce29
bcdb317f
bc2008b4
bc398c7e
3cdbea0c
bbe80e72
bcf65ba7
bbd702b1
3bc2c50c
3bbe596d
3cbd230c
bc88bb90
3cdb530d
3d3a3769
bcf81840
bc9ba1b2
3a02a7bb
3d140571
3c19fe43
3d277814
3c3da0e0
3c29cdc4
bd07b246
3bdfee12
bbf0d76e
bce1198b
bd0306e6
bcdce39b
bcf01b86
bcff8876
bd0d8ec9
bbbb5683
bd3a3550
3c0ae460
3cd477bc
3cee9dd8
3b8d01dc
3d21b08a
3cde5f31
bd268b1a
3c7dc593
3c22dfff
bcea5f85
3ca51a00
bd0181e0
bcc05d53
3c31f688
bd1d53ce
3d154973
3d1a059a
3cb0a915
3cf05ea2
ba83b37e
bd12007e
3d276fb1
bc0d1b71
bcc610f1
3cd47e07
3c232d97
3d29552e
bc690ff9
bcb9f98b
bd26234b
bcee807c
3cd5b036
bb8d4c84
bcd81adf
3c120ac4
3c488e7a
bd0816f0
bd0c575c
bc79591d
bcc3e74b
3c706706
bc4fc3f8
bcc5308c
bd26772d
3cdb78cd
bd028f5c
3ce19546
bbb9bdfc
3c88722a
3b45e2ce
bd14562e
bc9d4b6a
bccb72c5
bc86f8ad
3d0ff002
bc12626e
3d04d76b
bca52ac7
3d23e4ac
3ca122fb
bc5d3bb0
3cf4be83
3ce1cde6
bbdcbb57
bca1f6cb
bc0c4bd3
bcb2fa94
bc6d7c70
bcfb5287
3d3dccea
3d2e19b9
bd187c63
bcaf2d80
3c99f7f9
3c7f64d0
3ca873bd
bbb8c75c
3d128ae7
bd20f6f1
3b9d982c
3ce705c9
3c982cb2
3cf13cef
3cde2cdc
3b0369ac
bd092253
bce3a190
bcbf0dc7
3c3677f7
bc810a57
3d17bb73
3cabe8bc
bcbade22
bcd130e0
bc2eb80f
3d1a6a44
3c479703
3d0b07d1
bd1a7b0b
3c7e1112
3d2467be
3d11c194
bcd0aeda
bb8f04eb
bcd6d19e
bd117f84
bbc645ca
3d092791
3b6d56b0
bca29e90
3bb29bc9
3b89d42a
bd14a6ec
bcc1461b
3cd12232
bb9edf54
bb10af0f
bc6c636b
3cdd744f
bca656ac
bc0c494f
3ba79bbb
3d054ac3
bb348832
bbb49d2b
3ccf5904
bd2fbd27
bb7afd62
bcd5a9eb
3d28d003
b940f57e
3c3ad3a6
3d169f49
3d13122b
bd0b9fdc
bc613b19
bc4ab820
bc63608d
3cbb2357
bd32d0a2
bba399ce
bb022432
bd1ee569
3ce41d4b
3cef177a
3b0e2776
bc82949a
bd0b0f28
bc1b808f
bbaeb80f
bcc692f7
bb629c42
3d11904b
bcdd56f3
3d172abf
3d07aaef
bd0d23d5
bca1af7d
bc736263
bd0e8534
bc46da45
bd22da55
3ce807bc
3ce6149c
bc926e98
3ce685db
bd1c7475
3cc3d039
3c12dd52
3c7038e3
3d06d1e1
bd155c53
bcc9d7ba
3cdcb146
bc807bbb
3c9fe868
bc8ea39c
bc4ae211
bba6bbc1
3c74dbe0
bc6bcc6c
bd1479d5
bc2e8e1d
3cdcfaad
3d0eda23
3c4b5bb4
bcfcd680
bbb39848
39f1aba9
3d20ed81
3c9d7dbf
3c273b43
bd13ac4f
bc06e207
3abf3f46
3cf2e276
bb52094d
bcb89720
bd21dead
bb89c510
3d112ec7
3d26c6de
bb29493a
3b13fffd
bb833fbb
bc5b402d
3cb7b8d4
3cd54fbe
3cc32ca5
3d0dae3e
bd12263e
bc60a84c
3d29c023
bcf6e610
3bbad3a6
3c520afa
3c878317
3b4c5e12
3a023900
bc7837b5
bd18bc5a
bd216723
bd0dc22b
bcedb2f6
3c742bb6
bbbe5a43
bb8a3ddc
bd408744
bc0ae389
3ce4b018
3cc2b0ea
bd040af2
3bd2c103
bc0095bd
bbc11284
bcb519bd
3b9dc8d3
3ce4da0a
bb00841f
3ca6bd6f
baccbc06
bc2fc8b0
3cfe5c92
bb539da1
bba0a5fd
3d1539b9
3c6603d5
bb2346c2
bd4725c4
3c179c69
bcaaeafb
3ce06749
3c83afb8
bcc28d43
3d1e3971
bc0c2903
3cebfca8
3d05a3e4
3cefb8f5
3d199243
3d04ed70
bc5fa440
baa6223e
bc87c84b
bbe4e84d
bc56a594
bb01b21c
bd100e6b
bccc0df6
bc353d64
bc403361
3d0840e1
3c60fc2f
3cd186db
bbc7f0c5
3d375643
bd045996
3bac1674
bc0da42d
bd18def4
bc90d5a6
bbe0a9f9
3d2e6d9c
bc204bd0
3c7340d5
3d075c4b
bcea8fc1
3d07e9d9
bd0c0160
bc2f251c
3ca936c6
bca311e8
3c0e0008
bc33397e
3cf81840
3cfdac69
bb3d0b8f
bbd31338
3b8f1257
3ca7392a
3bf632f8
bcb14877
3cc41feb
bc3fb15b
3d212839
bd12e0e3
bc87d2c8
3ca2db62
bd036977
3d103a75
3aa3b221
3d0d1d8a
3cd0331e
bb935e16
bc51ed9e
bd276102
bc55cb79
3bb86cc3
bc8a2ec3
bcfc17a9
bd24b557
3ca6bd6f
bd14db59
3b149045
bcb2ce89
bd091f2e
3c74b1ee
3c4d8128
bbfbcd6b
bcf30835
3cf1fff8
3d24fdb1
3d2261bf
bca328fa
bcc26bb5
bc51a21f
3d4259e2
3b214dc3
bc3f65dc
3ca3bde0
bd17fd82
3ce1b8ed
bd1d590c
3cd29564
3d28d003
3a593b1a
3c8dbf05
bcd22ea1
3cad2568
bc2fd545
3c38fde3
3c263b69
bd289ca2
bb8561d4
bcb5bd51
3bd3efd7
3be67ffc
bcf8a2a9
bc244418
bd066b1e
bd277a2d
3cd5b899
3d136e72
bccd76ab
3d1e9c02
b9fa8699
bd1bd0e1
3be53727
3cbda2f9
3c5b2b34
3d2846a6
bcdbca97
3d337543
bcd54328
bd0bc48f
bb89e69e
3cfbb518
bcb9841b
3c7062d4
3d0a9153
3c314ec2
3d2d117b
3b66919a
bbcaa0a3
bd002c0a
3cc32010
bc877ee5
bd04af92
3cf4384c
bc7fb8b2
3d2d6ba9
bd0115df
3d2b3bb8
3b0170ae
bc0c8b29
3c823209
bcb4f1e5
3d27e1fc
3b9ae6a1
3d181adf
3c85cee1
bcb51373
3bd2094d
bc17a31f
bcad2136
3ce58601
bd1e5aff
bcdcaf2d
3ce5dbfd
3c8cc576
bd201ffb
bb9666df
bcd948dc
bd0ef998
3cd3b4b3
3cf2e6a7
bc3e4474
3b66fea7
3cd05af7
3b60cee2
bca493c9
bd090d5a
3cb51def
3d0b9991
3cccc682
bc783383
3c9ef30a
bd03e63f
3c67253e
3b61f2cf
bc8cc9a7
bcbcd142
bd114a0a
bc4d423e
bcf38c54
3c775968
3d21144d
3d10b1ff
3b19da31
bd1a921d
bcb0b9dc
bd29fadb
bd235504
bc452e73
bb0f44ac
3c926634
3c992429
bd1907d9
3af88d45
bd05f06f
37a74087
3cfb43d9
3d1b8130
bb8f86f1
bba73dc7
3bd263e6
bbd11a39
3c2c7da2
bc586a90
bcce075f
bcc8a9bd
bd18d36b
bcbd5fdd
ba87d475
bd19eb64
3cc38d1e
3c2092b2
bceafcce
3c3484d7
3ca163fe
3d23b257
bd193c47
3bb0b10d
3cbfbbd8
3c648627
bc47de51
bd218373
3c4df698
bb565aeb
3b855bf5
3d05c24c
bd331b15
bcf7574f
3b805bdb
bb1f1504
3b489e6a
3c704ddb
bbd099e1
3d2601bd
3d0f52b9
39ff4296
bcbf1e8e
bcc03361
3cc6e2a8
3c28b4c0
3cd71b04
bc3f7f06
bc9934f0
3cf3d7d4
bc8fbca1
3d0127b3
3d1846e9
bcdc4a84
3d0508b3
3ca5a89c
bca06ea0
bca7cbf7
3d250e78
3ce4388f
3d1c3dee
3c950119
bb217607
bcafd75e
3d20956c
bd087011
3ccb252d
3af09f3a
baf9137d
bd0b588e
ba9b3a84
3cd33d29
3c1128b2
3d207d4e
b8f3a04b
bcc996b7
bc1f3d48
ba9fc024
bc3b7f9d
bb0c4299
bceef1bb
bb8805f3
b94521de
bd22d0e5
3d1b6806
3cf440af
3c1fa6fa
bcd698fe
bbe42ab7
3b49539c
3cfb2cc7
bd07cb71
bcc6e8f3
bd0d5b68
bc5798d9
bcb81733
bb147a76
3bc149e2
3b824efa
baa31e7e
bd135760
bcae1694
bb71ddfe
bc15d33b
bc12d2d6
3c04b069
bbae2bf8
bc417a89
bc33e575
3c917d6b
bcc0b567
3bf35852
bd2452c6
3cdc7ac0
bd2fee70
bd404103
bcafbc1b
3cfad081
bcc43b2e
3b41b46b
ba91bd2c
3d2784a9
bce1f9f0
bc0cc8d1
3b83939e
bd0f483d
3caab68d
bd0c521e
bcedefc8
b8f84826
bcd2a62b
bd167232
bc4a31e8
3c9815a0
3cc31bdf
3d004428
bd0342ab
3cf4dbe0
3ce0e304
bce36b09
3d0c4157
bc96cc60
bc382c2c
3c2fdda9
bc533094
3caf038e
3c4ed0b3
3cf8f25a
3cd68c69
3d1a4485
3af4e875
bb7c7f42
bae3e1bc
3d418f82
bceeb91b
bc243351
3b4d8c0f
bc89a459
3cdaa716
bc8fa7a8
bb4d9cd6
3ca59c06
3d11cf35
3b1d1047
3d1bd2fa
bc529dc7
bc11d0e3
3b6ccb70
bcb2b346
3d0810a5
bd20ba1f
bca68f4b
bc4c5fc0
b9951f8c
3ce4f334
3cafe1da
bcc48f11
3cee6fb5
bbc9bd4e
bd21e1d2
3c62c55d
3b4922f4
3ca35504
3c7a69be
3d24d6e4
3cf2990f
bc9276fb
bd0c5c9a
3d08a58b
bd23f898
bd10c3d2
3d0b2420
bb65b77f
3d1c9c4e
3ca43351
bd25eaab
3b9f97e0
bbd343df
3be68a0d
bc6d6345
ba950e1a
3c31897a
bc922d95
3c2c7da2
bcca361a
bc692924
bd0b35f4
3c5141a7
3beb4e98
3d0485a1
bc88b978
bd04e832
bd00f777
3c2fd114
3d266773
bd009f62
bc41f85d
bc06522a
3bcf70ec
bc2dc8fc
bc781a58
bcad2568
bc0f7b9e
bd3504c5
3cb0728f
bce3b257
bcc51330
bc309204
3c8bc9cd
3b043809
3be76d62
bc69c023
3d01d6d0
bc41d6d0
3b102222
3ce5b424
bd180b24
bc016774
bc4d0bb7
3d17e671
3c347410
3ca0168b
bca0b3d5
3c923c43
bd2b13e0
bcb968d7
bd0025c0
bcd38690
3c92be49
3c979bfe
bd0a2db6
3d11a976
3b41d954
bc927914
bcece358
3c896bba
3d008312
bba890ad
3d309529
bb90d67c
bc5ab9f5
3d0b7d41
3cd5d5f5
bc0cb22b
bd0e7686
bb88b8a1
bd2480e9
3cd2a62b
bcb0a915
3ccc48ae
3c9450f0
bd1015c2
3cf0307f
3cc7fbad
3bab847e
3d167a96
bc0461fa
bbd1c483
3cf67903
3d106ab1
3d0c814d
3d0fe9b8
bced3b6d
3c236992
bcb01a7a
3cd97f63
3cfd1138
3c6c4e72
3d0d7f0f
3cf49279
3cfee0b1
3d065300
bcc93ea3
bd1f56a8
bd1a78f2
3cc7a9e3
3cf42bb6
3ad2f5dc
3b636596
3d3f63c3
3cbdff3f
bced04e6
3d170c56
3d0270f4
3c06ac57
bc972043
3d2c5d20
3c35286b
bc725a25
bd1424e6
bc9ae70c
bc651090
3d04ed70
3ca8c155
bd1f5ad9
bd4a808d
bc1219de
3cb19c5a
bd118a01
3c5a0dfe
bd42b94e
3cebd902
3ba94d6c
3c700abf
3ab403a8
3ca69be1
bc48c500
3c976790
bd147f13
bd21198b
3d071822
3ca06855
bd05e3da
3d32a5a4
3ce9b175
bd22541e
3a00ce9d
3cc73cd5
bb72e713
3d0958da
bd1b4784
3cbfc86d
3cbf5947
bce978d5
bd01d29e
bc546f58
bcb5781c
3d235d68
bcb430f5
bd30856e
3cd60c7c
bc354e2b
bc31e5c1
bcc66f50
3aacac9c
bcae3a3b
3c5afd11
3cd0c1b9
bca02321
bd03dccf
bcd6e04c
3d0d8a98
3c3f0996
bcdc182f
3c4e4a7b
3c714984
3c2cc4f0
bcf720c9
3c8678c0
3ce264e5
bd0ace25
bc994185
3c146e4c
bc95b142
3ce41701
bc59be4d
3c7ee6fb
bd1ece57
bc28869c
bcd9b3d0
3d207c42
bce0e94f
3cdb4aa9
3c8a1166
3ab82eb0
39c81c39
bc6e2c99
bc6d740c
39fdb54d
3c14785d
3c8a43bb
bcdf3b64
bc62a800
bc346349
bc1a34ca
bc85d745
3b652589
bd2d84d3
3bbf1f65
3c7444e1
3c88a47f
bd14dc66
bbc0ab56
3becc591
bb319539
bce74d16
3cce7ee9
3c40053e
3d2759ab
bc90c0ad
3c69ee46
3d0f3ecd
bd0180d4
ba90a6ac
baf8a81d
3cbb7953
3c56b65b
3cc96aad
bd15e28b
bcc59967
3d073472
3ab4b8da
bc352008
3c450481
3a05fa00
3b155490
3c78c21e
bd1a49c3
bd2529bb
3cbc1ace
3c282e88
bd1efd87
bbc32229
bc313598
bc7b15b5
bd1b9a5b
bb92110f
3d035159
3ce6cf42
bd02aa9f
3c947497
bc7ad29a
3ce72b88
3ccdf04e
bc4ebfec
bccc5975
3bb053f0
bd23c537
bc2fb3b7
bd25efe9
b99d291b
bb19e295
3c1a8c08
bcf03d14
3d0e6afd
bcd410f9
3d1197a2
bccef028
bd0de2ac
3b97c584
bd124d0a
bc31f688
3c29d628
3cb7f5a5
3cf7ec35
3d11d25b
3cd77964
39c909ca
3cca83b2
3d0e52df
3c7e36d2
3b132ff3
bc00be6c
bcb6bb13
3c13f657
3b861a61
bd0faeff
bd13ac4f
bcf0f388
bd2f3e47
bc096c25
3cd1aeb4
bcccbe1f
3c8a7829
3c4f3dc0
3c792afa
bc98b503
3ccfa051
bc70520d
bb7d9770
bb18478a
3ca7b917
3d260a20
3d2af577
3d026890
3bb9dd06
bc070b22
3b68e531
3c8ba1f5
bca15b9a
3cce1e71
3cf22e1b
bcbd5779
bd2b0963
3cc7cfa2
3c29d628
bc3313be
3c87e9d9
3c81d3aa
bcb54c12
39a645cf
3c4b85a5
bc9cda2b
bb7114ab
3cccb9ed
3bcf0810
bccb07d1
3c83a96d
3c89528f
bd291a76
bc55e072
3c1a7f73
3befdff7
bcebdb1a
bb8d9224
3d1b7bf2
3bc1bcce
bc87a8d6
bd110e45
bd2cb31c
ba3ac05b
bd02352f
3cdb63d4
bcba94bc
bd0fe261
3d2450ad
bb2a3e2d
bd0d66f1
3ce1719f
3d1935fc
3d22c12b
bc98116f
3d300cd8
3afcc5b9
bca27d03
3c08eca3
3cc0fece
bc92018a
3cad85e0
3d13953e
bc08509c
3cb193f7
3c493a71
3bf26d70
3b3594a2
3d0fb763
bc868987
bd1bed31
ba732379
bd230015
39946654
3bff02aa
3cbfd2e9
bcc66f50
3b1289db
bc06e852
3c443b2e
3cd5eaee
bbe69271
bca4df48
3bba5e35
bbf8b22e
3c98bd66
3d1000c9
3c3d1eda
bd1c4fc2
3bac97a3
bd0cb189
3cbeb181
3cf1cb8a
bcd12ec7
bbd7873b
3d0d0fe9
bca1be2b
bcf88fc9
3c31d92b
3b256d0c
3d1363f5
3cf2e8c0
bcd6ba8c
3cbd230c
bb8f4228
3ced8d37
bcd1782d
3d122425
bb42953b
3cd464dc
bc27bd49
ba11dc0b
3c28b4c0
bca43fe6
bcaa5e78
3be756bc
bd15347a
bbbf401c
bc6b1c43
bc2c4b4d
3c5f266c
3caf4491
3cd9ccfb
3ccf9e38
3c923c43
3d27eb6c
3d0e4a7b
bd25321e
3d22ca9b
3c263b69
bd121251
3d150dae
3c9f0803
bcc0fa9c
bcd80a18
3ca01eef
3c5e7211
3c5d65a1
bc2a5c5f
b9e0a9a3
bae22376
bced8b1e
3cce7ab7
3b98145e
3bb55186
3a0849e6
3c7bce42
bbddb8ad
3d0a4d2b
3d0cd962
bb0aa286
bcc4bb1b
bcc8cd64
3c940bbb
3b60688b
3ce2a800
bcf93dd9
bca426bb
bd0a5269
bd2d3a60
3c2a8a83
bc6175d1
bc9be8ff
3d206a6e
bc8ed3d8
3c85e80c
bcfb6bb1
3d227286
3c8a137f
3c441dd2
3d2cbea5
3cb606b8
3c856c51
3cc4b902
3d008fa8
bd039ffd
bbdd7d1e
3b2dd236
bc56a162
3cc894c4
3aab88af
3c0462d1
3c987619
bcca5df2
bae379b7
bd05a709
bd143394
3d0eaaf3
3d1f1066
bc7adafd
3cb039ef
bc6f34d7
bcd65e46
3d0183f9
3cee008f
3c777f28
bb4258d6
3c3c33f8
3d088a48
bc1c079e
3cb2bfdb
bc3352a8
3c019d24
3cafea3e
3c081c2e
b994b833
bd0d4563
bc915593
3ba2354a
bb72f2d1
bc472192
3cb6134d
bbb223d4
3ca06424
3c3c0a07
3be1fb32
3c3c2fc7
3d12ea53
3d17f951
bc38f57f
3cb99b2c
bcadcf46
bcf81e8a
3aaa8651
3c1ab6d0
3cf090f7
bd29be0a
3af14db6
bca1144d
bccfd2a6
3cb33fc8
bbba40d9
3d1b1423
bd0a8199
3cf9dd3c
bcfb45f1
3b42d34f
3d1801b4
3d19e83e
3bc4b175
3d10d499
bd0eb13e
baed5bb9
3d11a75d
3c85be1b
3c716b12
bd397fe9
bb93dcc1
bcce160e
3cc9e881
3c237048
3c072bd9
bc2368bb
bce77f6b
3d319f80
3cf23ee2
bd2cd6c3
bb1e038c
bcd9af9f
3d193815
bcd6ece1
3cf0110a
bc0e1354
3ad85597
3d1fc19c
bd078e9f
bc242aed
bd008d8f
3c157fc4
bcd0e347
3d047e4a
bb633193
3bf346b4
bb07980f
bcf1ac15
bd0bf7f0
3c9dfb94
3ce54f7b
bca40746
bce1693c
3c1828ec
3cc0ebee
bc326395
3b17d219
bc82be8c
bbf94bb1
bcfed634
3ab7b5e4
bcf3f749
3cc56f76
bc9afe1e
3cb2df50
bd0384ba
396aec48
3d0667f9
bd2de54b
3c46c11a
3d17891e
bd06088d
3d00d1b7
3cd3bafe
bc7dbd30
3c7f4ba5
3cd99243
bc31465f
3be45656
3c669271
bd0b6e93
3c62003b
3c4a2984
3d0f9b13
bc6b313c
bb273209
bc25d6bf
bafb97bb
3baf3791
bc6b4635
bcb0af60
bd13037d
3cad6452
bcac3eb8
3c8e7147
bd0434e3
bd0d4ed3
bcfb6135
bd152b0a
baeeb555
3ce86834
bc08fc28
3cb5c5b5
3c29003f
3c9309c8
bc4c1872
bd0829d0
ba394485
3acb3370
3cf5caf3
3cce7686
bcde0935
3c581f10
3ceff3ae
3badda99
bd176252
bc637de9
bc9afc05
bb87f52c
3cd753a4
3d230caa
3c6924f2
3cabffce
bbd36644
bce71cda
3b8874ae
3cd5bee4
3cd18b0d
bc91a112
3d000a7c
3c15de23
3ab5bb38
bc9e731d
3cd8e219
bc594d0e
3b7b3d23
bcff993d
bce69271
3a3171fd
3c35d463
3d168406
bc1be610
3d1be5da
bcb8c543
b9b48482
3d24aada
3d1ed070
3c3cdbbe
3d15f45e
3cce2d1f
3c036a83
3d204296
3bfaa6fb
bd240c84
bd160200
bd1d4845
bbc50050
bb3ab141
3d235611
3cd2cbea
bd0f7b9e
bc229698
bd1f99c4
b9bc5b10
ba772fa2
bd090b41
bce54717
3b793f1c
3d02c3ca
3cda9436
bd0face6
3c86ca8a
bc9461b7
3cd0331e
bd124d0a
bcb4fa48
3c37f173
3c0289b3
bcc154ca
bcf31b15
bd142a24
bceb93cd
3c63193f
3ce65387
bc9fa765
3cb45283
bcfabfba
3cf546d4
3cfa26a2
3c8afa2f
3ccf69cb
bc4347e9
b9d83e1a
3ce43aa8
3ba8ca8f
3bf14e8c
bd07de51
3c884620
3d1526d9
bcc6759b
bcaee632
bcd5c316
bb29a225
3ca1c68f
3c8880d8
3cca1f08
bc1b598d
bd22046c
3cedd8b6
bbddd2af
bd2b12d3
3c2bffce
3bbfe55e
3c1d9da0
bbb49ed9
b8ef53b5
bd24cd75
bcc12275
bd2f75da
bcfb267c
bb63fc94
3b0eb2b6
3ce46ae4
bb57d7c3
3b984a0e
bc67d999
3ca4ce81
bcd1d68c
bd068987
bac96463
bcf43201
3d0db057
3c97e996
3c84f095
bca8b8f1
3ccee393
3c5099e1
3ccfe586
bcf56217
3c3a9d1f
3cb10343
3c804d98
bac87cdc
3c1ce0e1
bd2976bc
3b5cd7dd
3cfdf3b6
b9864529
3bfff010
bd15a6c6
bc80f990
bcbdf6dc
3b1a6069
3cb5aea3
3b83b7b0
3d08d4bb
3cd38cda
3d0d7cf6
3d22e4d2
bcbd31ba
bcf71a7e
3b030355
3c94e1a4
3c9b0ee5
bbc4c745
3d2514c2
3c42acb8
bd02fa51
3cd757d6
3ce54f7b
3b1e6b90
3d01dd1a
bcc76f2a
3b8055fc
3cdf7836
bc9524c0
3d419e30
bd0388ec
3cf74688
3c516766
bcae2da5
3b1ebc18
3ce0d888
bc82b40f
3d1b8130
bd1c2d28
38c32c6e
bc528d00
3cf7574f
3cbb8801
3d08d3ae
bd2cc0be
bbf2e48f
bc1818fb
3be2db2c
3bf9d975
3d029f17
3b4a544d
bc055f50
3cbe7f2c
bcd612c7
3cd0e560
3d14f15e
3d167664
bbef119b
3cab8e8f
3d1003ef
3d07a073
3c3313be
bcced2cc
3bd4a000
3c9ed5ae
bc8aac97
bbd3a605
3cb923a3
bcbac2df
3bb23b51
bd069d73
bc696c40
bce3a3a9
3c9b8ed2
3caaed14
bbb0673b
3ba629cb
bcc14c66
3d11def0
bc792afa
3cbde82d
bbedfb1b
3a1d0b94
3c623af3
3c2b4741
3cf09fa5
3c9ede12
bb99f1ae
bd152d23
3c3d449a
bd2e9dd8
3cadb61c
3c93c46e
3d032980
bcefd86b
ba9bcacc
3c09dc8d
bd2e6645
3d28f6cf
bceca03c
3cad44dd
3cf57d5b
3cf2ba9d
3ce48627
bd20168b
3c97a893
3cd3f9e8
bc4ebbba
baff1afe
bc07f166
3c0f6fe0
bcfc547a
3d087981
b9e62ef4
3d008fa8
bc915bdd
bd08882f
3d0e160e
bcde56cd
3cf6d97b
bd383cf3
bb2dd73e
3ce9f05f
bc8a8d22
bd37d30b
bc1bbf0e
bc14071e
3d2f7a0b
bbc7d292
3cb6c9c1
bc2964e9
bcf6d331
39ca76dc
bd0f8727
bc11a112
bcb36dec
3d08259e
3d3a11a9
3bc29033
3b1fe6bb
bcc5cbbc
bd110f52
3d017b96
bca02d9d
3c02e29e
bbd2db04
bbaada34
3c54a1ad
3c339192
3d117508
3ae8cf62
3d1ede12
bc9ed395
3c1231c6
3c934480
3cf253da
bcb68273
bd1c23b8
3d0c78ea
3cc03793
3d045996
3d10b956
bbe246b2
3d1b62c7
3cecd291
3ceae9ee
bd2aa7df
bd2400fc
3ba2f710
bb803cd1
bca2bbed
bc5323ff
39a2bd2f
bd0983d8
3d21f299
3b70520d
3c990082
3d14306e
bc4cc038
3cb1c433
bc845fe1
bbbd6e8b
bc23be4b
bcd7d178
bd18afc4
bd28bd23
3c2a21a7
3d1187e8
3cec397a
bce3a9f4
3b8169f8
bd0db6a2
bcbfd0d0
bbc13ac8
3d20e736
bd06f36f
3d0cbf2b
3c9ff0cc
bccccccd
3d17e671
bc84a2fd
bc05b185
3d153ef7
bc5c37a4
3d0d1c7e
3c9ffb48
3ccdd93c
bce58601
3aadfc27
ba1a3cd8
3ca01041
3cc48f11
bc2fea3e
bc113760
3c53e921
bc9fb3fa
3be00086
3d00ca60
3ce7839d
bc945953
bbcbf60d
3d1bcba3
3cd24bfd
bcdda05a
bc86b378
bcda1ec5
3d0fbdad
3c16616b
3cc4156e
3b8e1a0a
3cf72b45
bcb964a6
3d01ca3a
3c608af0
bd20fd3b
bc8c34c2
bd2ea52f
bbc99ae9
bcd9902a
bc8f648c
bd1b3bfb
bc5f97ab
bd04406c
3c974602
bb2776d2
bcab1d50
bce6234b
3be92197
bd0cd424
3cd18f3f
bcd6abde
bd100c52
3cb01eac
3b15c854
ba3dac9e
bc5102bc
bca5b0ff
baaa0019
bc9fd588
3c021b63
b92df2c2
3d09afe2
3cd197a2
3d02107b
3c859642
3cb4bd77
bcf8feef
bb94ec8c
bd2c710d
bd27cbf7
3be56b29
bcdf2021
bae9e287
3cd377e2
bd140358
3ce75ff6
bca09678
bd1f2991
3b19c107
bc9f1498
3c41ce6c
3d0a57a8
3cd696e6
bd007aaf
3c8d4bad
3d0ba1f5
bd00c847
3aab8554
b9de3ee5
bc8676a7
bcd7abb9
3d0485a1
bcddbdb6
bcf455a8
3d147171
3cfe8683
3d239f77
baea803c
bc6924f2
bd3400b9
3c40b999
bc85681f
3c53910c
bc5477bc
3d0a02b8
bd0b35f4
bcbf7058
bcbe0ded
bd3c47e5
bd1a597d
bcc22ccb
3d098809
bd0b1cc9
bc787ad1
3bf8a23e
bbe81bde
bd171194
bd171d1d
bac73abd
3af83607
3d10ca1d
bca0a30e
3c179b27
3a6c2909
3c44da90
bc438b05
3d118d26
bd070436
3cbd31ba
bd13bc0a
3c49c4db
bcb37436
bd244e94
bc753826
3c5dce7d
bb08a2d1
3cd425f2
bd04113c
3d2160d9
bbd3557d
3d17ce53
bb97ae07
bd0c09c4
bd3151e7
3d0bcf0b
bca1016d
bcfdaa50
bd0f6cf0
bc34f616
3d1a8588
bb50d7f4
bc41d6d0
3ba355db
bd12f5dc
bca261bf
3be57bf0
bc16adc1
bc5f0d41
3b0d7e02
3c7b82c3
3d00980b
3c4faace
3cfcc187
3d11697f
bb54f8eb
3c7f9f88
bcfab756
bd0acaff
bb7407a4
bc808206
bcb4fa48
bc661d00
3be77341
bce22c45
3ccdc012
bd186ec1
3bea8976
3ce3a190
bce3c969
bb178d50
3c052355
bce05682
3cd09e13
3d0ca926
3bc6ccd9
bd04b6e9
bc22a6f4
3af18d76
bd11e53b
3b9e0610
3d203926
bced3954
3bf2b4be
bc0c296f
bc78b589
3be67799
3abdf9cb
3cede97d
bb9b3220
3a624c66
3c43ce21
bc18fb7a
3c216037
3d0b3f64
3cbba776
bc5cf894
bc8c75c5
bcfc200c
3c2426bb
bccdb37d
3c78df7a
3ccfdb0a
bd0a72eb
3c6dc3bd
3b86719f
baf98237
3aeeb8b0
3d0e24bc
3c6e2004
bcd45847
3c1dc070
bd234ca1
3c099616
3c6c80c7
3ac43db2
3cbda2f9
3d144029
3d0ccccd
3cc4028e
bcb53d64
3cb19a41
3c8beb5b
bcffd3f6
3bd4ba01
3c5fa440
bc251a00
bcfe132b
3d138152
3b4427e3
bd1a2e7f
3cefc159
3cf08aad
bbd805e6
ba84fc54
3cd2e0e3
3ccb74de
bc986db5
bcdd52c1
bd355bcd
bd2008ea
bcf648c7
3ca0f0a6
3d154a80
bc090b41
bd0a8f3b
bcc69d73
3ccadbc6
3c3f37b9
bc79d6f1
3ce0d888
bcdf351a
3cac6046
3ca2bbed
bcd898b3
bcf607c4
bc4f5f4e
3bc2323f
bd18a761
bb93ebdb
3c397bb7
3ccde1a0
3c5ce39b
3cb124d1
3d10f94d
3cbf0564
3ce6fb4c
bd1204b0
bcfa1e3f
3d1de376
3d0d898b
bcf6683c
3cec1e36
3c111a04
3c7123c4
3cfe6927
bd128390
bc401e69
b9a9a62c
bc963993
bcd48451
3b77065c
bb4640c2
3aa8310c
bcc677b4
3be3d527
3bb01506
bcf42353
bceaf039
bced97b3
3d016df4
3c79a49c
bae69850
3c9096bc
3d04912a
bd3166e0
bc61975f
bc434c1b
3c41c609
3c8811b2
3b1c8bbc
bc915593
3d4a88f0
bcbf20a7
3b5de0f1
bc21a2e8
3cda1230
bbe5e679
bcd43f1c
bcb98a65
3c397354
bd20c6b5
bc1717df
3ba22e94
baaec220
3d022ab2
3c88bfc2
39ce327e
bc403ff7
ba2a33c6
bc226e54
3c8e10cf
3d0e67d7
bd088a48
3d28f29d
3cd7b635
3cb53b4b
bca0fd3b
3d0a8c15
3d21815a
bc199f0d
bc920e1f
bceddf01
bd17225b
3c8dc550
3d15f99c
bcc26bb5
bbbd15a0
bcd63886
39c66eba
bc87b13a
bd0ec41e
bcff8445
bd0c5eb3
bcda1a93
3c3cc294
bcc091c1
bbe0688b
bcc44bf5
bca43138
bd0d4fdf
bcfa3982
bd0445aa
bc2d2dcb
3baee55b
3cdef630
3ce1d430
bb0038a0
3c011ee4
bb7e5358
3cb22f27
3d0ad688
3cdd872f
bba11c45
3d041dd2
3c6bc83b
3c713059
bcb2745c
bc330729
bc1b082f
3c85ea25
3c4f7447
bd116335
bcf30a4e
bca122fb
3cfb82c3
3c18c41c
3cfff152
3c5f6db9
3cf61ed6
bcaf5dbc
3b8c9753
3c63c537
3cf46cb9
bd1df86e
3bdc27b4
baec8854
bc4dd50b
bcd7d178
bd069a4e
3ce92d56
3b74c38c
bb15bff0
baa8ad33
3ccd056c
3c0a994c
3b5a696e
bc3020c5
bd369a91
bcd9c066
3c65d181
3d24ce81
bbbaeda7
bbb24710
3d20c9da
3bddda3b
bd0e2196
bce5f527
bd243ed9
3bd2c103
3b6a7e8e
3c4914b1
bd38444a
3cd9018e
3c2960b7
3cab239a
3b0bb759
bc0bff12
bd194e1a
3b9ce9b0
3d086cec
3cbd09e1
bc9ac797
3c619fc3
3c87ee0b
bcb50f41
3cf7121b
3c1168de
3c12b006
bcdf99c4
3d023e9f
bc81ba80
bc0a52d5
bd0d67fd
3c88b978
3ba9fe6c
3c82278d
3bfa998f
3bbd42ec
bce7afa7
bd23b689
bb83ba34
bc29691a
3b8c18a8
3c81f538
bcfbe985
bcd5de59
bc075f04
bc560e95
3d1eaee2
3c7aeff6
bb953a8f
3c9fa54c
3c5184c2
3d13a2e0
3ba48ec0
3cdd7881
bb97c300
3c22cd8a
3d22fbe3
bb000142
bce4e054
3ce9ee46
3c9b1d93
3cc62c34
3c1ced0b
3bbb49ee
3ca12945
3c019dfa
3ca8e92d
bc824b34
bc5e54b5
3ce1932d
bbe4c6bf
bd12d44e
b9ceba0d
3ce872b0
3cb05101
3c413fd1
3cdbb59e
3cb96af0
3be51faa
3c7b2aae
bcb1b585
3cd8ea7d
3d20a958
3afb224b
bc83126f
bbdc329b
3ca15b9a
3d000c95
bd35c6c1
3ca2680a
3cc59967
bafcb4f2
3ce56abe
3d2a0664
bcc4f3ba
bc951612
3c953dea
bd16b65b
ba842fa5
3c9274e2
3cae9036
3cd3dea4
b8289c6c
3c4d8dbd
bc9ad42c
bc540ee0
3ccaf4f1
3c963348
3a274c35
bc265493
bcd5885d
bceeb0b8
3c9f1ae3
3b969787
3cf7574f
bbb6ea0c
3cad14a1
bccccccd
bc50a244
3c179548
3cb4373f
bcf98b72
bc600d1b
bc149ac2
bca70b07
3ca25743
bd12630f
3c46cdaf
3b8c94ce
bbad1ddb
3b9d6a09
3cafbc1b
3c2e03b4
ba8e83bc
bd24851b
bccfe586
3c52630f
3d1c64bb
3c98e970
bc766a55
3c869a4e
3cf52daa
bcd4f7a9
bc4d0bb7
bd005921
bc0cb94c
bd0996b7
3d083559
bcdc4eb5
bc3dcf03
3cb4d270
3d0fb00c
3aabb0f3
3b99d95a
3a61e710
3d077ab3
bbf52256
3c26d267
bcde5f31
3d23779f
bcd451fc
bbc3b272
bc892ee8
3d082492
bd2e6a77
3bef2fce
3d287b14
3d00e065
3c8f40e6
3d0095f2
3bc63bb9
3ca786c2
bd1d590c
3d236d22
3b020e63
3d1f01b8
bd1c065b
3d0f2064
3c8b673c
3d0eb032
3cb96d09
bb80e065
bd070c99
3cf6d331
bd0e7cd0
3d163348
bceabffd
bcbc01a3
bbbb54d5
3c97edc8
3c6de54b
3c3445ed
3c0c8bff
bbc404a7
bbd04882
3d2b15f9
bcb8b04b
bd2f294e
bcf89e77
bc141b40
bc43efae
3c880b67
3c8f0414
3ae9b38d
3cf9ee03
bc0c8041
bc8d759f
bc877469
3cabb235
bc10214b
3d1b35b1
3b9f16b1
3cd5347a
3d013fd1
bcad2999
3c31209f
bd26223e
bcd701da
bcfdb2b3
bcb2d2bb
bbcae8c7
bcd15ad1
3cd8f2e0
bd12bd3c
3d04eb57
3d1cb35f
3d263737
3c9309c8
3a2e9e8e
b9cb6c7a
3cf9d6f1
3d1567dc
3ceac42f
bceed677
3c397fe9
b915b737
3ce8a937
bd237ac4
3cd92104
bca0fb22
3d1d4e90
bc6b2d0a
3caf1cb9
3cf7ced9
bbc45f40
bc38f57f
3d0a233a
3b751c77
3c0d009a
3ceddce8
bcdcc63f
3d1476b0
3cdd1a22
bd0f0c78
3cabecee
3d0317ad
bc061482
3bbb044d
bd04db9c
bd23cfb3
bd1593e6
bc091b9d
bceebb34
bcfb6fe3
bd0c8eef
3d3ae254
bc2163fe
bcd54328
bcddf224
3c86f694
3d0f2cf9
bc58ec96
bc2d18d2
3ce34331
3cc68017
3c28f7db
3b3693a5
3c871a3b
bc3be447
3c8229a6
3c5f7e80
3c2b8a5d
bba7afdd
3d387df6
3d2328fa
bcd07e9e
bd2aa3ad
3ce8dda5
3c5debd9
bcb3b752
3ce1a60d
3c525edd
3ca54c55
3d1527e5
bd016052
bbf86f12
3c9bd406
bce8c261
3c521bc1
3c857d18
3d201798
3c7a4830
3c4f5f4e
3cad080b
3d041bb9
bc914b16
bcce3151
3cec0d6f
3d072e27
3d0d0460
bc8a6fc6
3ccf93bc
3d174b40
3d01d3aa
bd04f7ec
bd06583f
bd06748e
3ae9ba43
bbff8a8f
3c8f2389
3c4258d6
3d27d673
3c9f81a6
3cdac8a3
bd13eb3a
bc68b7e5
3c0e7147
3cf04146
3bd8523c
3c0bcd94
3cf06f69
bd11d25b
bc9e81cb
bbed4c9f
bb86f7d6
bd0e0653
bd1700ce
3d330942
bcae6ea8
3c82645e
3b725878
bd29014b
bc2f6c6a
3c99a1fd
bd3ca644
3c05af6c
bc7c9ff9
3c6718a8
bc921ab5
3cc7a17f
3cc7863c
bbe33d52
3cb78cca
bcd55608
bcf18223
3b87485e
bd029069
3d06594b
3c8d62bf
bcf0ae53
3ce45a1d
3c2e18ad
3cf587d7
bbff83d9
3c005525
bd2cc921
3cdeaab0
3c8a8f3b
3c1b74d1
bc86f04a
3ce6687f
bbe6a5bc
bccabc51
bd09f1f1
3c62a3cf
bcf4b407
3cda0be5
3bde0ae3
bcf2f124
3c58a548
3d090710
bcc1f85d
3d01eeee
3c91b1d9
3cfa0b5f
3c060c89
3c84d76b
bd073040
3d17aaac
3cef0069
bc5f7e80
3c2a6091
bb4a1cef
bcf414a5
bba6ae55
bd2175d1
bcaa27f2
3b401cbb
bbf8bf9a
bd24d5d8
bc2875d5
3cfe0696
3cbce853
3cdb8562
bc20ae61
bc61a826
3c4e24bc
3d0dc11e
3c34fe7a
bc081c9a
3d3b0920
3c9fb613
bb7855e8
bc2e31d7
bb777bcd
3c0d4ad7
bd244d87
3d0110a1
3d1f2021
bbfe2cc1
3b25ce5b
bd00d2c4
3c89fc6e
3cf1e4b4
bc71ed18
3c02d3f0
3d303e21
bc8919f0
3d02b303
bc458687
3d2bcc6c
3d1eeaa7
bcf292c5
bc67ee91
bca2ee42
3cb21c47
badc0e89
bd3316e3
3c55d3dd
3c877ee5
3c0761f4
bd1909f2
3cfafea4
3ba9c561
bd22da55
3c9f46ed
baacce2a
bb375643
bbeba6ad
3d0ae211
bcb5158c
bcf060bb
bbc0980b
bca7cbf7
bc031b3d
bc64c943
bcb94318
3d049dbf
bc4903ea
3d07b784
bce6d58d
bc0cab75
3c64217d
3ce7429a
bc0065ec
3d0f14db
3d2cf95d
3b0acfd2
bb9237a6
3bf2a5a4
bc6bf22c
3d0c21e2
3c015cf7
ba0f9839
bcbe425b
bd17b41c
3d3cce1c
3ce1804e
bb51bc20
3c840bfe
bd0bb906
bd008d8f
3a37eeef
3cd98bf8
bcf034b1
bd004966
bc63c969
3d157bc8
bb022432
3cb8023a
bbd8284b
3ba5ffd9
bc8b1359
bacff8d1
bceedcc2
3cff9724
3b8cbb65
bd028e50
3b11064d
bc838195
3ccfdd23
bcadf938
3d078961
bc990f30
3cbde82d
3c2370b3
bca3fee3
3d17d6b6
bcd11be7
bb69fd5f
3c48754f
3d34c3c2
bc79fcb1
bbb3b67b
bcf13f07
3d0bff47
bd377293
3d050acc
3d1593e6
bcd54110
bd1e02eb
3c51dcd7
bac56854
3cf7121b
bc5b50f4
3cfbd6a6
bcaeafab
bc6f416c
3ab92048
3c845133
bce0bb2c
3bec8422
3c951612
3b880e57
bc1ce00b
bd387f02
bd1fe436
bd08c3f4
bb808c82
bd0fce74
bd228aa4
3d08c60d
3cd0f40e
bc777f28
3af0fd2e
3cff8ec1
3b9a649b
3d1830e4
bd2c7757
394af100
3aee06d9
3d256580
bcacffa8
3cb4fe7a
bc817119
b9b0da53
bcf79421
3920714f
3b1abcaf
3ca9845e
3a8333fd
bd10a351
bd24a8c1
3d3f876a
3b2465a5
3c8e0221
3d316e37
3cdec80c
3cc70004
bd1fd7a1
3d0405b4
bcb1bde8
3c9018e7
3d0c0054
bc022d01
3d29131f
bd1ae70c
bc0917d7
3c975d14
3d24cf8d
3cdf30e8
bc98b503
3cc914b1
bc4e28ed
bced8905
3b95167d
bb8383ae
3c251e32
bc4a361a
391ece8d
bd00053e
bd12c7b9
3b87eb1b
bd455326
3d213900
bc9e1f3a
bcbf290b
3cf10a9a
3b61c730
bbb11ef1
3d139863
bcb09a67
bd17d391
bcfd694d
3cd492ff
bccf00ef
3d1e4b45
bc855758
3d0764ae
3cc883fd
3ca19a84
3cd54da5
3cc5da6a
bb1e73f4
bcbacf74
bc7d3b2a
bcd0c1b9
bc9d8a55
3cf6e610
3c94b7b3
3c903c8e
3d068987
3d179af2
3c06da0f
bc93250b
3d087981
bcbabead
bcc486ad
bcd65a14
b9ca7eea
bce94ab2
3abc1d52
3cdc6e2b
3ba5ea0a
3cc39ffd
3ce7296f
bd0eb67c
bc84406c
bcd95fee
3c07046c
3d204af9
3c252ac7
3ca502ef
3c3f11f9
bca41e58
bc8fa15e
3c359579
bced00b4
bc9f6230
3cbbafd9
bc56b229
bd119ac8
bd0e13f5
3cd29995
3c9e6cd3
3cd612c7
bcb83cf3
bc6e02a7
3ca6c3b9
3c80ecfa
bb159b07
bcb3226c
3d1c5e70
bc1d6bb6
bbffc39a
3d298677
bcabd3c3
bc15cbaf
3cc028e5
3a02f99a
3ca4fa8b
3bb2272f
3d027200
bd02ba5a
bd181adf
bc752fc2
bbd3caee
bd1ec5f4
3bfcfded
3d18efbb
3c5edaec
bcee43aa
bcb3ebc0
3be420a6
3d2b3786
3cbca969
bd01a36e
3bfcc766
bcd9f2bb
3cf1843c
bca4f441
3d1eb95e
3d1d7cb3
bcb3f63c
bc375ea6
bcd79f23
3c4b85a5
bd2c7970
bcbb18db
3c3d33d3
3d0b3b32
3c285879
3d083559
bc63ffef
3c1f3c71
bc43ac93
bba00c7a
bc7a5d29
3cf79208
bc985ad5
baec95c0
3d0c985f
bd00b45b
bcdfc7e7
bc3aa9b5
bd297f20
bcc48063
3d014e7f
b91d91cc
3b2062e1
3d26fa40
bd27589f
bd23ab00
ba6e906c
bc4bb7fa
bd0436fc
3c78d2e5
3cad8e43
bc5b65ed
bd1bcec8
3bf31536
bc9e83e4
3b247311
bb124a1a
bcd57ffa
3d0051ca
3baae51b
3c892ee8
bc7b9bed
398d0df0
bd0ad8a1
3cebf22c
3ce44b6f
3d1d8e86
bbd2e367
bc44da90
bcc00da2
3c867f0b
bccdd723
bcc0a287
bccd2913
bd248a59
3cbb2789
3d0945fa
3d172bcb
3cde84f1
3d00f020
3c757710
bd1fb82c
3bc89530
ba94fd53
bd323572
3cf2a173
bd1a20de
3c8d4fdf
3cb39e28
bc46e2a8
3d1528f2
bd06ee31
3cc72192
3c6831ad
bd1578a3
3c714db6
bd2cf744
bd073abd
bb8ad0a9
3ad3140f
bcd4b05b
bc400970
bd46a6e3
bcdb7f17
bc928390
bd00dc33
bacda031
bb4fb5b5
3cbe5fb7
bc80c73b
3c092a4b
3cdf2a9d
3be1c807
3cc7e8cd
bba36fdc
3d2a63b7
3c1231c6
bc20c35a
bd2684cf
bcd479d5
bca5fa66
3c8fabda
3c21bc12
3ce66cb1
3d216723
bb3bb1f2
3c6236c1
bbc887c4
bb002123
bc779852
bc81e258
3b95f3f3
3c16114f
bb7f9c2d
3d0258d6
bcfe4367
ba81374d
bd09118c
3ccb05b8
3d116db1
3cc2df0d
3d242396
3d28f084
bcf7f067
3c66d58d
bd09289e
3cc8882f
bcb3f855
bcb250b5
3c53cbc5
bc996745
3c705ea2
bc526b72
bca862f6
bca44630
ba8439b6
3bcdcbd0
3d16861f
3b236baa
bd15ef20
bd1349bf
3c4332f0
bc533094
3c83968d
bcb51bd6
3c5ece57
3d1aab47
3cacb641
3d20157f
bcc56d5d
bd4f3344
3c8c5c9a
bbd198e4
bca9003f
3b82b049
3d1e41d5
3d28ccde
bc9a2e7f
3cbfe3b0
3c6f6b5d
3c1ff427
3d0302b4
3c5a9004
bced2aa6
3c3ee808
3d2c8b44
3cf46aa1
3cb91b3f
3d0ce810
3c71fddf
3cbf034b
bca45910
bc97fc76
bc8eb463
3be7726b
3cad6883
badfd18c
bd1a06a7
bc634763
bc8ebcc7
3cd49731
3d06bce8
bd05b8dc
3ca367e4
bca73b43
bcfc5048
3cc477ff
3d28e2e3
bcb6e936
3c6f77f2
bcd69d30
3c8d716d
bd33311a
3c9e14be
bce598e1
3c351bd6
3d0aaeb0
3c318dac
bc250d6b
3c93b5bf
3d0853c1
3ae793f8
3cf87054
3d33519c
3c9d9f4d
3d3a00e2
bcef954f
bbcfb5b5
3c8c9b84
3c6d1394
bd27dbb1
3c870974
3d158ea8
3d067382
bc992ea5
3cd78812
bc87d4e1
bce65bea
3ab83f77
bb1baaec
bc8f96e1
3d09bf9c
bbeb9f20
bbb61d5e
bc9c66d3
bc5db552
bc6c28b3
bcafa722
3c0008cf
bb5d8b61
3b768a35
bc8e1d65
3d0bd124
3bf0109f
3d073abd
3d349cf5
bccd898b
3d1d93c4
3b5b55fd
bcfb5aea
bcafa0d7
3c7adafd
bc941850
bc27a850
3cf78bbd
bc3f876a
bd110a13
bd1c896e
3c91ec92
3c888723
3ce4d5d8
3cf8d2e5
3c20436c
3ca90eed
3c1325e2
3d23d0c0
bd06fcdf
3b5977d6
3d13c793
bcc2fa51
3ca5a89c
3cd4306e
bcdea897
bbcf27f1
bb41e365
bd07e9d9
bc744d44
bc9d3ed5
bc3b9496
3cd69f49
3d27e953
bcb85a4f
3bd392ba
3c09fa55
3ce87f45
3ccc1a8b
bc659afa
3cd94d0e
bca2f273
bccc9214
3cf7ad4b
3c859210
3c203819
3d13458d
bd05e0b5
3d1c4a84
3cf58c09
bc98dac2
3c0a5f6a
3b3520df
3d06034f
bb9f44d4
bce032db
bc441dd2
bc137593
bcddedf2
3d054bcf
3cb99b2c
bc82c0a5
3cf04ddb
3c8561d4
3bf5b523
bbfbbca4
3cf6bc1f
3c143541
3ca87c20
bc2c9afe
3c063aad
bc9f5382
3cd72de4
bcc33f85
3d22877f
bce2d624
bbcc1ca4
bc911277
3d17df1a
bccf80dc
3d2dddf4
bc6f8056
bc84a948
3c3ea91e
bbd06284
3caa94ff
bd051761
3cf8854d
ba4ba585
3ae32fe6
3cda9436
bc3bc2b9
3c9e5e24
3cd50ca2
bd2223e2
bd02e87d
3b2dbab9
bc85dd90
3c3f0132
bd1888f8
3ccdf480
3d086163
3c9220ff
bbb3dde8
3a807607
bc496031
3c14bcbb
36bbecca
3c916228
3cffcfc4
bd46f8ad
bc7dc9c5
3bcf1b5c
bd4b007a
3cd47e07
3d107faa
bc4286f9
bcae85ba
bd26fa40
bcf765fe
bcc30d30
3aad5107
3d1755bd
bc633eff
bc2d6883
3c21bdc0
bc50d499
3d1da8bd
bd146c33
3cff5c6c
3bf7e14e
bcb24639
bcec0725
3c4f2064
3d25f41b
3cbccaf7
b8c31196
3c864452
3a375496
bcbae03b
3ccad57c
ba8e0e4b
3b9b7cc9
3c67ab75
3b743196
3c9ba5e3
3cbe2b49
3b8d1b06
bd22ed35
3d17bd8c
3cb7d849
bcf3061c
bc2ed56b
bd060675
bd1f5382
3cd82ba6
3cb152f4
3c278290
bd29d0ea
bd03bb41
3cb94749
b9fb4fed
bb5adb83
3cc9363f
3ba610a0
3d040af2
3cc3cc08
3c8e7ddd
bc0afd1f
3bb8404e
3c96b11c
3b5f068b
3bf0380c
3c80c73b
bc4093d9
3c432229
3bc9539c
bc041751
bd2960b7
bcacc708
3d55bab2
bd1ba0a5
bc1d84e1
bd6236c1
bb5e43ee
3c267a53
bd35903a
bd396e16
3cb0c027
bd23810f
3b8df952
3b1795b3
baa5d511
3d1e7968
bcef9768
bd39a8ce
3d4110a1
3cb8800f
bbf326d4
bbfe8ee7
3c3d0e13
bd04ccee
bbb48fbf
3c14112f
bc52aa5c
bcfc3505
bcf1c10d
bce90364
bbee2435
bcd78a2b
3c82c2bd
3d52e515
bca92817
3cde2260
bd22e6eb
3c5c6e2b
bca773e2
bccfb331
3cfb41c0
bce490a3
bcc2dcf4
3c1c7a1f
bc6bbfd7
3c876e1e
bd014c66
bcf1a198
bd282c6f
bd208d09
bd450375
bd1b9a5b
bc90f94d
bd1272c9
bb630afd
3b477dd8
3c8ca1cf
3ccdee35
bce56042
3cdc725c
3c98aeb8
bca52696
bca29e90
bd162cfe
3c4111ae
bd11e647
bbf99de6
3b886d21
bd0ded29
bb38d31b
bc1812b1
3cb9170d
bc96a8b9
bbc3fec8
3b338426
bcb39192
bc6ff195
bced373b
3d0cb5bb
ba3ea394
bc22a257
bd228241
3cf32bdc
3c8f861a
bc04ebf8
bcce7254
bc15c63b
3c3cc6c5
bc9cf9a0
bd0404a7
bce9ca9f
3d0a86d7
bd078d93
3b4e449c
3af8b8e4
3cbe7f2c
3caf8162
3ca9f16b
3c705a71
bcb6a61a
bcaf37fc
bceac647
bbe5f8ee
bc27f801
3ba7107b
3addd02a
3bb5243a
3d1f6ec6
3d2e5cd5
3ba85a27
bcd666aa
3cadbe7f
3ccec205
3cbfc43b
3b9fd014
bd1424e6
3bbcaf48
3bf78d6b
bc45b4ab
bd2a52f0
3d29057d
3bd4895a
bc79b995
3c817332
bd1af3a1
39512b81
bd477250
3bebfdea
bd0854ce
bd1fab97
bd036439
bb80b095
3d1d041d
3b8fcfec
3d013016
3d145f9e
bb90fdea
3ccdd723
bd1fb82c
3d2d6452
bc057d83
3c983947
3d0915be
bbb58f99
3bb54fd9
bca15550
bc950332
3cb5115a
bc27264a
bd0f3882
bb9d4372
ba684e88
bd262bae
bc518091
3cc67382
3d0e7ddd
3c28bd23
3bcdb95c
3d33f749
bccc9646
bc725e57
ba11fc41
3d11233e
bd327350
bd300cd8
bc5a61e1
bc6fd439
bc3fb58d
3d0bb3c8
3cb3eff2
3cb8bac7
bd0c5fc0
bc4e5b42
bcaf2b67
3c98a43c
3aae7ba9
bca55087
3d38af3e
3cb55476
bbde9044
3d128bf4
bb990951
3b71be1e
3cdc725c
bc870974
bbde97d0
bca9d40f
bb14a7c2
3c5c0981
bd13f39d
bcceb13e
bd22b064
bcb01a7a
3cf14984
3c6ed02d
3d1d4307
3c9656ef
bc40d6f5
bcfc4e2f
bbb9a177
3abbb54d
bb844143
bb6d6ad2
3d35cf25
3d1d4413
bd14d1e9
bc74666f
bccda09d
bd056c51
3d0881e4
3c813cac
bd0a99b7
3d0fc3f8
bd17646b
bc9f3c71
bc747304
392942da
3c8bd87b
bc81908e
3c4caf71
bcb93ab4
3c3f76a3
bc9b4784
bca52ac7
3bde1ad3
3cc7baaa
bd20be51
3d2835df
3cddc619
bba6cbb1
bd0666ed
bbad2cf4
3d2f3e47
bc0fb43e
3d3eb9e5
3cd30f06
3caea316
3c04d339
b9bb20fe
3ab6dbca
bcdfbb51
3cc970f8
3b5fcfdf
3d43c6c9
3c34677b
bd14ea07
3c1c51db
bc2e5bc8
3cca361a
3d3a9b07
3c025fc1
3d19ba1b
3ac92147
bd0adff8
bbc3d684
bcdfaca3
3d0e7360
bceb7aa2
3cbbcb1d
3d2a704c
3c96377a
bb074787
3cb37c9a
bcf74eec
bcb10dbf
bd0024b3
bd08bfc2
bce1b6d4
bc9769a9
bc68ccde
3c12df6b
3c43f812
3d1490e6
bcf8ceb3
bc54b6a6
3d2d0c3d
3d2a1d75
3cfdae82
3d3443d4
bce82d7b
3c98b2ea
bc6ed02d
bcf31f47
bcabbecb
3c035738
3adc9b77
3bbc4b75
bd301a7a
3c3a40d9
3d025072
3d0e3ef3
3cad4d40
3bcaa759
bd1000c9
3c3ffcdb
bc3584b2
bcd0d6b2
bd049ba6
3d06ae3a
bce15012
3cba83f5
3cfc04c9
bcc73472
bd3a55d2
baff93c9
bc8b955f
bcdbf26f
3d29307b
bbc595a1
3c57d391
3ce2dc6e
3b8b08dd
3b9b280f
ba7c44e0
bcac3a86
3d0e6299
3c1c502d
3b85cd34
3b5f1c5b
bd06bdf5
bd3afb7f
3cd77319
bad1a650
bc718ca0
bbc42dc2
bd2235b5
bcf8b157
bd119158
bcd7cd46
3d1015c2
bcfa15db
bcdc9c4e
3caaa194
bc477575
3ba8fc0d
bc3edb73
bce9057d
3b0893b8
bcc2efd4
3d21187e
bc1d0cec
bb6c7e43
3c028368
3b990448
3d185f07
bbdd3276
3bb3aeef
bcce67d7
3d01387a
bc7ddebe
bc67cd03
3bffdf49
3d173b86
bc8826ab
3cfe6b40
bcc47e4a
bb85f7fc
3c671477
bb9cbfbf
bcbadc0a
bd115055
3cc7f994
3ac84de2
3c83d790
bc71e083
bd0f398f
3cb58080
3bf9b563
bc929aa2
3c8cfbfc
3ba7bac5
bceeb91b
bcf865d8
3cdc9a35
3c2cd5b7
bd2bf445
bd3e0ce1
bd1e59f3
bbec163e
3d13bafe
3c96fc9c
3ccb44a2
3af63b5b
bd16b767
bd00218e
bcd097c8
bcd1cc10
bceb8950
bd2a5e78
3c301c93
bd103105
3c151e0a
3c8259e2
3c96e7a3
bc1d4d18
bcef3f53
397062d4
bc95768a
3c660807
3ba9f531
bbd769df
3c1b7465
3cde310e
bc897a68
3b6c08d2
3c156a60
3cd51d69
bbab034e
bcd02abb
bd0b4070
bd0096ff
3c0e98b5
3cd1e109
3bb8503e
bd08a9bd
bcb74bc7
3cd7c915
bac65336
bd013448
3957c6a6
3a97c4ad
bcb97dd0
3cf542a2
bcf46ed2
bcaf9011
bcaf72b4
3c9cef24
3d17ce53
bd0de8f7
bb908f2f
bb00e065
bd1c3ac9
bbebb5c6
3c9f8c22
bc8c6b48
bcc8c0cf
bad8e285
bd1757d6
3d214057
bc78a090
bcf891e2
3c77b17d
3c12d483
3c309204
3c8196d9
bbdacb93
3d2ccf6c
3cf292c5
bd1f6018
3c3c2fc7
3c243782
bcba0c6b
bc637154
3c2d46f6
bcbfc86d
3d1bf056
3cde2cdc
bc9d4739
bc978f69
bd009c3d
bb338fe5
bb394f42
3cef1349
bc7b0920
3be6545d
bc86f263
bc313dfb
3ca3a29c
