3c5ed289
bc87fcb9
bd1ad42c
3b51b717
3c89a027
bc51b717
3b5844d0
bc872b02
bd05f06f
bd051eb8
bc51b717
bb7f9724
bc59e83e
bc9ba5e3
bcd42c3d
bc7765fe
bc88ce70
3cf0068e
3d06c227
3c4ccccd
bce075f7
bd01d7dc
bc5844d0
bd25e354
b99d4952
bcee6320
3c8b4396
bd1a0275
3c83126f
ba83126f
3cb020c5
bd1652bd
3d29930c
3a51b717
bcf27bb3
bd0c154d
bc7c5048
3d2786c2
bc92a305
3d03e426
3d0ef34d
bbef34d7
3cd0e560
3d428f5c
bce7d567
3cc2f838
bbe8a71e
bcba2711
bca2339c
bbce703b
bc8b4396
bc656042
bc6a7f3d
2c083131
3d172474
3cb020c5
3d05f06f
3b83126f
3baa64c3
3a9d4952
bc89a027
3c63bcd3
3bce703b
bb6bedfa
3a902de0
bd34a234
bd03e426
bca7ef9e
3d2b367a
bd04b5dd
3d36ae7d
3ccf41f2
3cc22681
bd1374bc
bd3c6a7f
bd0a0903
3c7df3b6
3c5d2f1b
3cfd21ff
3c9a0275
bc90ff97
3c9a0275
bc87fcb9
3cc154ca
bcf4f0d8
3badab9f
bcc56d5d
3cb9f55a
3d0f5c29
3d1ce076
3c1374bc
3d05f06f
bcbfb15b
bcf27bb3
bcb78034
3b5844d0
bbd1b717
3d1ad42c
bca57a78
3ccccccd
bd0ce704
bc9e1b09
bd0ce704
bc809d49
bcb78034
bc15182b
3cdd2f1b
3d2cd9e8
ba1d4952
bc0ce704
3ceb1c43
bc621965
bd322d0e
3a9d4952
3d051eb8
b9d1b717
3d072b02
3c8b4396
bbb78034
bcf34d6a
bd0ce704
3c3923a3
3d0240b8
bd016f00
3c1d4952
3951b717
bceb1c43
3ca64c30